#version: 0.2
Ġ t
h e
Ġ a
o u
Ġ s
Ġ m
Ġ w
i n
r e
h a
â Ģ
Ġt he
n d
Ġ b
i s
Ġ y
l l
Ġy ou
o n
o r
v e
âĢ Ļ
Ġ f
Ġ d
i t
Ġ l
Ġ c
Ġt o
e r
e s
Ġ n
ha t
Ġ h
Ġ I
Ġ o
a r
in g
Ġ he
a n
e n
Ġt h
Ġ p
Ġa nd
Ġ g
o m
o w
e d
Ġo f
Ġb e
o t
s t
a t
Ġ ha
Ġm y
Ġm e
Ġ in
e t
l e
a y
s e
l d
Ġt hat
u t
g h
i m
Ġ is
c e
o o
Ġ it
k e
Ġ e
i ll
i r
Ġf or
Ġyou r
Ġw e
Ġ u
it h
a d
Ġn ot
a s
gh t
c h
r i
Ġ on
Ġ k
Ġw ith
i d
om e
T he
Ġha ve
l y
he r
ve r
Ġh im
Ġa s
a l
Ġl i
Ġs t
Ġd o
Ġth is
Ġ re
en t
ou ld
oo d
Ġ A
r a
Ġs o
or d
âĢ Ķ
o re
Ġh is
Ġw ill
e ll
Ġa n
c k
u s
ou r
ou t
u r
Ġd e
Ġw h
Ġ T
Ġs e
a m
Ġhe r
Ġl o
i f
Ġa re
Ġth ou
a in
Ġ C
t er
es s
e a
a ke
Ġg o
a nd
i ght
i on
Ġk n
H e
W hat
Ġa ll
r u
i l
Ġn e
Ġn o
i ve
r o
Y ou
ha n
es t
Ġm an
Ġs h
g e
Ġs u
W h
Ġc an
t h
Ġw hat
c t
an t
Ġg ood
a u
Ġb ut
B ut
n t
r om
Ġs p
Ġlo ve
in d
on e
Ġa t
Ġl ord
u st
Ġu p
Ġkn ow
Ġs ha
Ġw as
Ġhe ar
a st
Ġs he
r y
b le
Ġw he
Ġli ke
i e
ĠA nd
a ll
Ġs ay
A nd
e ar
in k
Ġc om
Ġhe re
ou s
Ġw ould
Ġ M
e nd
Ġa m
Ġb y
l f
Ġs ir
Ġ our
Ġ if
Ġse e
ve n
Ġf rom
p p
Ġt han
e p
q u
Ġthe m
Ġ B
Ġm ore
Ġ S
Ġ j
Ġ v
Ġ out
I f
T h
on g
Ġn ow
u l
Ġs w
Ġu s
Ġwh o
Ġthe y
G o
Ġthe re
i o
a re
r ow
Ġw or
er s
ar d
i c
Ġc on
Ġa b
Ġd id
oo k
Ġl et
ver y
O h
in e
Ġ or
Ġthe e
se lf
Ġsha ll
I t
at her
Ġt ell
Ġf a
Ġb l
f e
Ġon e
Ġth ink
Ġan y
o p
Ġth y
e l
W he
N o
re d
Ġthe n
Ġ H
at e
M y
Ġwe re
Ġs a
am e
Ġwe ll
Ġa r
âĢ Ŀ
Ġp r
Ġ L
Ġ F
Ġc ome
e m
re s
re at
Ġp l
n g
Ġwhe n
Ġ P
Ġthe ir
Ġm o
is t
Ġp o
is h
Ġa l
a k
Ġ r
ot her
Ġsh ould
Ġto o
Ġm ad
i ch
Ġs ome
Ġb r
Ġg ive
ou nd
Ġ E
im e
f ore
Ġm ake
i g
Ġab out
ad y
Ġ D
Wh y
Ġ R
ea k
Ġa g
or t
W e
Ġ O
ot h
ar t
w ay
i ce
Ġu n
Ġ âĢ
p t
ĠT o
Ġ qu
Ġh ow
u n
Ġe x
Ġk ing
Ġ âĢĻ
Ġf ri
Ġ ri
as s
Ġb o
u re
at h
Ġd on
ĠâĢ ľ
a se
L et
Ġha d
Ġ en
Ġl ook
Ġg et
Ġm ust
Go d
i ck
Ġha s
Ġ hat
Ġt ru
is e
Ġm ar
Ġfri end
Ġha nd
a ck
a ve
ĠC a
ou gh
Ġag ain
Ġsp eak
The re
C ome
. âĢĶ
es ar
T hat
Ġbe t
Ġt ime
o l
u ch
Ġf ather
u m
Ġt ake
oo l
a g
ĠT hat
H ow
Ġhear t
ing s
r an
t her
h ing
Ġc h
Ġof f
n ess
Â ł
u e
Ġne ver
Ġm ay
Ġn ight
or n
G ood
in ce
Ġp ro
ur n
Ġ W
Ġt w
Ġm uch
Ġc ould
Âł Âł
Ġbe en
au ght
i es
f ul
le ase
Ġsu ch
w n
al k
Ġm en
Ġd is
Ġl e
Y es
au se
Ġd ay
Ġa way
Wh o
Th is
Whe re
e et
ow n
S o
Ġa f
Ġl ea
it y
Ġw ant
W ell
Ġe y
Ġj ust
Ġ The
ĠCa esar
Ġs er
Ġwh ich
re e
Ġthe se
I s
Ġf ool
at ion
Ġ G
Ġh on
l o
t le
ent le
N ow
Ġin t
d e
nd er
Ġ very
o ld
en ce
p e
Ġ ke
he d
Ġw r
ve s
D o
Ġ God
Ġhat h
Ġf o
He re
Ġc ha
ast er
i le
Ġhe a
Ġwhe re
Ġbe c
Ġup on
or s
Ġg reat
Ġw ay
Ġe very
id e
th ing
Ġo ther
nt on
Ġri ght
u ll
i p
i re
i ous
Ġf l
Ġg entle
Y our
b er
Ġw ord
i ld
Ġ ru
Ġy et
Ġe ar
s s
it her
Ġd aught
Ġne w
a c
Ġe ven
Ġmo st
Ġc all
ig n
Ġtru e
i an
Ġo ld
Ġbe fore
Ġli fe
a ble
Ġme an
a ge
Ġg ra
Ġd es
Ġwor ld
Ġde ath
Ġm ine
ĠA nton
res s
Ġo wn
The n
if e
Ġw om
it e
v ing
Ġde ad
Ġ im
ou se
Ġl ady
Ġc ou
Ġk ill
Ġbet ter
i us
Ġa d
o se
S he
Whe n
Ġdo es
t y
Ġcom es
ou l
i a
m an
Ġt r
l and
Ġd u
Ġ N
Ġf e
Ġb ack
Ġn ame
Ġp art
o s
Ġf ind
Ġbl ood
Ġey es
m ent
row n
Ġhea ven
or row
Ġlea ve
Ġ J
as on
Ġsw eet
Ġke ep
Ġs le
Ġbr other
Ġgo ing
Ġha pp
Ġmad e
Ġd own
Ġp re
i gh
p er
Ġdaught er
w ard
Ġl ong
re n
b y
ve d
Ġd one
Ġe ver
Ġbe g
Ġ ro
Ġw on
l p
v il
Ġw it
Ġt alk
Ġon ly
ar k
Ġh ouse
Ġtw o
Ġs on
o st
Ġo ver
Ġw ife
Ġint o
Ġl it
c es
Ġno ble
b l
Ġs c
Ġp ut
all y
Ġpr ay
F or
is s
ll ow
e en
Ġm at
ri ed
ĠT h
f t
Ġmy self
B e
Ã ¨
Ġst ay
Ġlit tle
b e
s w
Ġde ar
Ġsa id
Ã¨ d
Ġyou ng
a ce
Ġw ar
The y
Ġk ind
Ġm aster
Ġh op
Ġcom p
Ġbec ause
Ġnot hing
Ġfriend s
Ġd ie
g er
n ot
Ġs l
ĠAnton y
. âĢĿ
o nd
Ġ ra
Ġp e
Ġm ight
Ġp er
Ġa pp
an ce
Ġhe ad
Ġre m
a p
ow er
Ġsle ep
b and
Ġsw ear
m en
Ġ K
Ġu nt
Ġpl ay
Ġh us
Ġthou ght
om et
Ġcom m
Ġha r
Ġfa ir
Ġst ill
Ġb oth
er t
Ġp lease
he s
Ġs m
Ġwom an
e w
a b
i er
Ġhop e
u d
Ġpo or
Ġre ason
T is
ct ion
Ġser v
Ġnew s
Ġhus band
Ġhe lp
I n
Ġa c
i ed
Ġm ind
Ġbe ing
ĠA s
Ġen ough
f f
Ġhear d
Ġcon t
Ġs oul
Ġe l
Ġst and
A y
ir st
Ġar t
ear s
ÂłÂł ÂłÂł
Ġb est
ĠC ass
Ġcan not
Ġfa ce
Ġbr ing
Ġb ed
Ġg u
Ġthan k
Ġre p
u ck
Ġas k
Ġman y
g et
Ġar m
Ġwr ong
Ġc l
Ġch ild
Ġm on
Ġne ed
Ġel se
at ch
Ġli e
Ġan sw
Ġe nd
Ġj o
Ġhon or
l ess
Ġt urn
Ġs omet
Ġh our
Th ou
ĠF or
Ġb ra
Ġfo llow
G ive
e e
l es
Ġth ing
Ġth ings
Ġli ve
Ġany thing
c ome
l t
is ter
Ġsu re
a w
d ay
Ġmat ter
D on
Ġw ish
Ġsw ord
n ce
Ġm er
Ġb ad
Ġf ight
Ġsh ow
Ġmad am
ĠE ng
Ġm ak
Ġs ince
Ġh ome
Ġbe l
s and
Ġyour self
d s
on ight
Ġaf ter
Ġ But
Ġto ld
op le
A re
d y
Ġu nder
Ġthou gh
a ch
p s
Ġf ell
en s
Wh ich
or y
Ġbe ar
ill ain
ĠR ome
Ġb re
T o
m ed
on s
Ġf ear
Ġha st
S t
i et
re t
Ġc our
Ġsa w
Ġbo y
Ġpe ople
T ell
Ġ ent
Ġre s
ie ve
r ut
Ġf irst
ĠB e
o ck
Ġc are
Ġh or
L ook
P lease
r ant
w ell
Ġt onight
Ġm ist
in ess
Ġh o
one y
Ġdu ke
ar ry
ain t
Ġv illain
Ġsomet hing
rut us
e f
ou ght
Ġansw er
a ut
is on
Ġth ose
im es
Ġst ran
f or
Ġn or
Ġwh y
Ġcon s
Ġagain st
A s
Ġre st
N ot
l i
a il
ha r
Ġto m
en ed
ir it
Ġwor k
Ġp at
S ir
g ed
Ġde vil
Ġhand s
i ence
Ġbe aut
se l
Ġs ister
Ġsp irit
ĠW ith
Ġon ce
a it
e ver
Ġ V
Ġd re
Ġcou nt
Ġt ra
Ġm other
ist en
pe ct
D id
t is
Ġlet ter
ĠH er
Ġfe el
B y
d er
Ġru n
Ġim p
t he
Ġs ent
Ġth ree
Ġhon est
t ing
Ġa ct
Ġs ame
Ġm oney
Ġg l
Ġg one
Ġcon f
m e
Ġt ill
Ġf all
Ġc he
Ġp ri
ea ce
N ay
e red
i ent
Ġc han
ĠB rutus
l ed
u nd
Ġm a
Ġd oth
Ġme et
Ġfor t
Ġhim self
Ġrem em
le as
Ġwe ar
Ġpl ace
ĠO f
A ll
in s
it ion
Ġwith out
ĠL ord
b t
Ġh um
Ġin s
ĠI n
et h
Ġas s
Ġwh ile
Ġcha r
o ve
Ġm orn
are well
Ġword s
Ġc ry
Ġp ra
Ġg ot
i z
in n
Ġp ower
ut h
un e
Ġt re
Ġw o
Ġf ull
Ġp a
Ġthou sand
Ġwor th
Ġr ather
y ing
ou nt
Ġp ass
Ġe m
Ġso ld
Ġc ra
Ġc ur
Ġp ur
Ġin de
Ġli ght
Ġse nd
ran ce
Ġgentle man
Ġunt il
O n
o ice
Ġ Which
Ġb us
, âĢĿ
i ble
k s
Ġw ind
Ġd ou
Ġth r
ow s
Ġu se
in t
Ġf ore
en se
us ic
Ġsay s
Ġcom ing
Ġex ce
Ġhapp y
Ġp res
Ġle ft
g s
st er
There fore
ert ain
get her
Ġstran ge
Ġs ad
ĠC l
Ġun c
by e
c y
Ġ He
T ake
Ġl ast
Ġh old
Ġat t
ĠO r
ĠCass io
Ġp rom
Ġwe l
Ġfa ith
Ġac c
Ġmorn ing
A n
m s
x t
âĢ ĥ
Ġc ous
Ġth us
Ġre c
Ġre ally
Ġan other
Ġse en
Ġbel ieve
H is
W ill
Ġh igh
Ġmar ried
Ġinde ed
Ġ ord
Ġt ri
Ġb u
is hed
Ġc rown
Ġp ers
Ġre t
Ġmist ress
Ġtom orrow
Ġ U
ut e
ce ive
al t
Ġserv ant
Ġto gether
an y
Ġal one
Ġcour t
t en
Ġm usic
Ġcous in
Ġdid n
r ink
Ġn at
Ġh ur
Ġyour s
ie ld
Ġmak es
e al
r ay
Ġt ong
Ġb ri
ver s
Ġqu ick
c hed
k en
ha ll
Ġc o
Ġhe ll
Ġevery thing
c l
s h
Ġm ur
Ġc ame
ar y
an s
Ġen em
Ġdre am
Ġwel come
Ġs ick
Ġw ise
Ġn one
if ul
Ġv ir
Ġmar ry
Ġw alk
on t
Ġd ru
Ġc lo
Ġgo ds
ĠS ir
H ave
O r
i or
i ly
Ġg ave
Ġse c
est y
Ġremem ber
Ġe at
Ġso on
Ġdoes n
ĠEng land
Ġt imes
Ġs et
ion s
Ġbl ess
Ġkill ed
Ġa w
Ġp leas
Ġfor th
Ġpo ss
Ġdis c
y al
Ġse a
Ġear th
e ct
n ing
u se
Ġre ady
Ġlo st
ĠF rance
Ġad v
ee ch
n o
! âĢĶ
u p
re ady
Ġd rink
W ith
r ing
Ġm ess
Ġg ri
at ed
Ġwe ep
Ġk iss
Ġgra ce
sel ves
G et
l et
Ġt ak
am n
Ġal ready
Ġhor se
l ing
u c
ou d
is ed
Ġp eace
Ġgo ld
Ġsu pp
ĠM y
a pt
Ġs it
Ġl and
Ġl aw
Ġto day
Ġne ar
ĠR os
Ġqu een
Ġbo dy
Ġbre ak
M ad
b s
il t
Ġfell ow
Ġin st
Ġ You
re st
en er
Ġv al
F arewell
w een
Ġ Ġ
Ġb reat
Ġret urn
A l
Ġw ait
ie ce
Ġtr uth
Ġthr ough
Ġs ing
as h
Ġsu n
ĠE d
c ious
Ġ i
Ġw atch
Ġb an
Ġf ar
Ġfor g
ĠP r
Ġmean s
Ġtalk ing
a v
f ort
j esty
Ġd an
Ġg row
Ġha lf
id es
Ġwould n
Ġbus iness
Ġdou bt
Y et
o or
Ġb es
ra w
Ġwho le
Ġpre t
Ġunc le
Ġpers on
Ġtong ue
Ġs ound
er y
Ġp ay
Ġg r
at s
Ġha ng
Ġst re
Ġsh ip
ard on
Ġdis p
ÂłÂłÂłÂł ÂłÂłÂłÂł
ĠRome o
Ġf ree
et s
ra ce
Ġan g
Ġlove d
Ġchild ren
Ġcount ry
Ġpres ent
Mad am
i x
Ġt ry
Ġs n
Ġm is
in ed
Ġg ener
at es
au lt
Ġsp o
Ġlove s
Ġknow s
fe ct
Ġdes er
Ġb id
Ġf ur
Ġf ire
Ġc ause
ar s
Ġg re
Ġdo ing
Ġlook s
e ed
Ġb it
Ġc ut
Ġst r
Ġv oice
c a
c ed
Ġw at
Ġb at
Ġb orn
ve nt
Ġh ither
Ġo p
ie f
Ġle ad
Ġey e
lo ck
ĠRos al
Ġl ess
Ġar ound
Ġbra ve
S p
l ish
Ġd are
Ġc ertain
Ġp ain
Ġst op
Ġmo on
Ġhar d
c hes
d om
re l
Ġdo st
ra id
au d
Ġbeaut iful
Ġl isten
Ġbe h
Ġhat e
Ġbet ween
Ġcomm and
ĠPr ince
g y
Ġc r
ĠI s
Ġde f
if t
Ġgive n
Ġex p
Ġdru n
Ġl au
Ġbe at
ĠS t
way s
Ġtru st
Ġf ound
out h
Ġsha me
Ġfort une
Ġstr ong
i v
o y
p le
Ġ id
ĠI f
et er
Ġe ither
ent y
Ġang ry
a ir
b ed
d d
i ct
z y
Ġ ill
Ġt er
Ġs k
Ġsu b
Ġtr ou
O ur
m p
Ġ '
Ġ Who
Ġ When
Ġs ight
Ġd inn
Ġst ri
Ġre ad
ull y
ĠHer o
Ġd en
Ġli es
us ed
ĠM ac
Ġaf raid
Ġvir t
C an
m ost
Ġt en
Ġs ake
Ġy ears
ll ent
Ġf al
ri ce
Ġwho se
Ġqu iet
Ġcou n
ĠJ ew
aud io
i al
he e
Ġc ar
Ġme t
oo se
Ġit self
Ġe ach
ag o
ign ior
ĠN or
ĠK ate
Ġwo nder
Ġsold ier
C a
Ġ What
Ġ We
he ad
Ġf ault
ĠT han
Ġj ud
Ġr ing
ened ick
ĠRosal ind
? âĢĶ
S h
c ess
p on
s o
Ġs at
re m
Ġd ist
Ġp ardon
Ġha ir
Ġal ways
ĠTh is
Ġmon ster
S ome
T w
e ad
Ġc le
ĠI t
ir d
Ġde l
Ġde ed
Ġpo ison
a le
u es
Ġ Q
Ġa ir
ou ch
re w
ad e
ri ble
ĠC h
Ġkn ew
ro ss
Ġsee k
pp ed
Ġwom en
ĠV en
Ġenem y
Ġdinn er
Ġl ear
Ġit s
Ġre ven
Ġcom fort
Ġmar k
Ġblood y
Ġcomp any
ĠCass ius
Ca esar
g ing
h o
t ed
u ke
u res
Ġt ears
it hee
Ġe vil
al th
Ġst art
Ġthought s
Ġyou th
ve l
Ġl ate
Ġl uck
us h
Ġsee m
Ġbec ome
ren ch
ĠEng lish
ĠCl audio
Ġfal se
H a
M ay
j ect
u nt
Ġa ge
Ġs or
Ġd amn
Ġth ine
The se
Ġwh om
Ġpr ince
Ġal ive
ound s
Ġsl ave
har d
Ġbreat h
Ġt em
on a
it s
es h
Ġst ory
ĠM a
ĠB enedick
Ġpo int
Ġex c
Ġmar ri
Ġtw enty
Ġhur t
Ġgener al
f ully
i ke
v ol
Ġs ur
re r
Ġhe nce
Ġde p
Ġne xt
ĠB y
Ġwor se
Ġqu est
Ġgentle men
Ġserv ice
Ġjo y
Ġprom ise
Ġnat ure
Ġdan ger
Ġbat tle
! âĢĿ
W ould
Ġd ark
Ġp ity
ow ard
st and
ir l
Ġre l
Ġthere fore
Ġsome one
Ġoff end
ĠW ill
ĠK ing
Ġunt o
S ay
Ġs ide
Ġto ward
Ġwe ak
Ġli ves
ck ed
ĠM ar
Ġcall ed
ĠAnton io
Ġpat ient
Ġgri ef
Sp eak
S w
y b
is f
Ġf our
Ġf oul
Ġd ut
Ġd ro
Ġwith in
ĠS o
are d
Ġany one
Ġpr in
ĠF rench
Ġmer cy
Ġmess en
E ven
v y
Ġis n
Ġst or
Ġst ate
Ġsay ing
Ġtoo k
Ġtra it
Ġgl ad
und red
Ġexce llent
Ġlau gh
yb alt
n ed
p h
p r
u red
v o
Ġm in
Ġf ea
Ġre f
Ġgo es
Ġal most
Ġma id
gy pt
Ġsor ry
Ġmarri age
b ly
b eth
l ou
u ff
w e
Ġ Where
Ġw oo
Ġb ar
ll y
Ġf ield
Ġc or
Ġg irl
Ġbe ard
Ġkn ock
Ġsu ff
âĢĿ ?
ĠE gypt
Ġday s
Ġfl esh
Ġchan ge
A h
T han
n e
o ver
Ġw ild
Ġl ay
Ġh undred
Ġdo g
fe ction
ĠR om
Ġwant s
ces ter
be y
Ġres pect
Ġconf ess
eal ous
Ġpret ty
Ġwat er
Ġsat isf
C all
S hall
k es
Ġs il
on es
Ġc old
Ġst ra
ur se
Ġam b
Ġhonor able
iz e
Ġord er
Ġquick ly
sh ip
Ġfur ther
Ġdrun k
lou cester
L isten
g ar
z e
Ġf ly
Ġf ast
Ġd rown
ĠI ago
Ġe re
ra m
ur y
Ġde ep
Ġlo se
Ġkn ight
Ġj ealous
ue en
Ġfool ish
Ġim ag
d ing
Ġb urn
Ġc ase
ri es
Ġsha lt
Ġbr ought
Ġpro ve
ment s
Ġpre p
Ġro yal
Ġchar ge
Ġsec ond
ĠEd ward
a ct
m it
Ġm outh
Ġw is
ll en
Ġc apt
Ġre qu
ent s
Ġv is
Th y
el come
Ġheart s
ĠCh r
ĠMa jesty
Ġdut y
H er
J ust
e k
g u
i red
Ġw ed
Ġli ps
ra ge
ive s
Ġsh ort
Ġsu it
Ġknow n
el s
Ġpr ison
ĠD es
ĠD uke
oth ing
Good bye
Ġapp ro
Ġho ly
Ġposs ible
Ġquest ion
W as
e c
k ed
m er
Ġf am
Ġe as
Ġus ed
Ġfa v
ĠG loucester
Ġpat ience
Ġcra zy
ĠQ ueen
i ers
l en
Ġb ro
ll o
Ġf ood
Ġd ied
Ġc ond
Ġc oward
if fe
ĠH ave
Ġpl an
Ġear s
Ġdes ire
On e
Al as
M arry
g ain
g ue
k er
Ġw in
Ġl ow
Ġc ru
Ġh ide
al s
ra ct
ct av
end s
Ġr an
Ġbo nd
Ġgra ve
Ġunder stand
Ġtrou ble
Ġstor m
ĠChr ist
W elcome
a im
Ġf it
Ġf un
at rice
Ġin f
Ġbl ame
Ġsa fe
ĠL uc
Ġmo ck
Ġpa le
M ost
c c
c ent
e g
n s
Ġs in
Ġs ense
in es
Ġc ap
Ġc arry
an e
ut ation
ur ch
ĠC har
ea ch
Ġno ise
Ġfl at
Ġdu c
Ġworth y
E very
Ġt y
Ġs ong
Ġw ine
Ġb ound
Ġhave n
am let
ic hard
ĠH is
Ġfo ot
ign or
Ġgra cious
Ġpra ise
Ġpur p
ceive d
up id
Ġforg ive
Ġreven ge
Ġw ast
Ġme ant
al m
Ġsp eech
ĠS ignior
Ġbl ack
ick ed
Ġwr ite
os ed
Ġarm y
Ġmak ing
Ġbeaut y
Ġservant s
Ġbes eech
g ers
i res
p l
w h
w he
Ġs im
ha m
Ġf ine
Ġl ad
Ġo ath
Ġp u
ot t
ce pt
oo f
ch ief
Ġkn ave
Ġne ither
Ġman n
Ġlord s
ĠM oor
Ġdid st
ĠCa p
Ġwr it
Ġcont ent
Ġmur der
Ġclo se
Ġden y
Ġ Your
Ġc e
Ġp un
at o
Ġin v
Ġde v
ast ers
Ġthem selves
ul t
Ġtell ing
Ġpl ain
ĠP om
Ġqu ar
Ġser ious
Ġmight y
Ġhour s
Ġmer ry
ĠBe atrice
Ġexce pt
Ġbeh ind
Ġstra ight
Ġduc ats
P ray
t o
Ġc ast
Ġto wn
ore d
ĠS h
Ġget ting
ĠG race
Ġapp ear
Ġimp ort
Ġche er
Ġfea st
A t
b o
d em
n ow
Ġs orrow
Ġw ret
nd eed
Ġy es
Ġl ying
Ġof ten
at ing
Ġin ter
as ure
ĠS hall
Ġpr ot
Ġpr oud
Ġevery one
Ġrep ort
Ġgr ound
ĠVen ice
y s
y ram
Ġw ilt
Ġf ie
Ġh u
Ġh ot
Ġin no
Ġnot e
Ġli ving
Ġde c
ĠT ybalt
Ġab s
Ġal ong
ĠD o
ĠO ctav
Ġcha llen
Ġdaught ers
Ġheaven s
ren ce
for m
the llo
Ġmessen ger
Ġfav or
T om
T ru
c ience
i b
j oy
Ġb ig
ve re
it ies
Ġl ot
Ġn ice
et ri
le ep
Ġlo ss
Ġsu m
ic es
ate ly
Ġsa il
Ġar ri
em etri
Ġal so
Ġri ch
Ġaf f
ĠTh ou
Ġcomm on
Ġthank s
St ay
Ġtak en
Ġsub ject
ĠMac beth
vol io
ĠChrist ian
emetri us
B ring
I ndeed
c ause
g g
h ip
o h
t w
v ia
Ġt end
er c
Ġo pp
Ġo bey
Ġfor get
rom io
ĠM ark
Ġcon st
ĠH amlet
Ġmo ve
Ġking dom
Ġspeak s
Ġser ve
ĠJ ul
Ġhapp en
Ġlong er
Ġhar m
Ġletter s
Ġpass ion
Ġfore ver
Ġmur de
Ġop en
ĠDes dem
ĠDesdem ona
A r
e ep
g ment
u ally
Ġt reat
Ġw ent
Ġb le
on y
Ġp ast
Ġg rant
et ch
Ġdo or
ĠA n
ink s
Ġwor st
ĠTo by
Ġlook ing
Ġaf fection
Ġwit ness
Ġwar rant
Ġcour se
Ġfore st
Ġatt end
Ġbit ter
Ġtrait or
M ake
N othing
c ul
c lock
i ant
s es
t hat
u ous
Ġt it
Ġs us
Ġm id
ha l
Ġd ire
Ġd raw
Ġl ust
Ġn iece
Ġh it
Ġhe alth
ow ers
Ġso ft
Ġse lf
are nce
Ġthink ing
Ġex pect
Ġlook ed
Ġch urch
Ġoff er
Ġpro f
Ġcould n
Ġhea vy
Ġrep utation
Ġlie ge
Ġturn ed
Ġfort un
Ġsuff er
P r
V ery
g es
l s
u b
y sand
Ġs ch
Ġs ign
Ġm orrow
re nt
Ġb ook
Ġd iv
Ġp iece
Ġin c
id er
Ġne ck
fe red
Ġpr ithee
Ġgive s
ĠD id
Ġex t
Ġking s
Ġch oose
Ġpro p
Ġfool s
pe y
Ġdes p
ress ed
Ġsoul s
Ġgu ard
Ġcons cience
li ke
Ġpra ct
Ġsold iers
ĠU pon
Ġlear n
Ġprin ces
ker chief
ysand er
M e
N or
d en
k ing
Ġt ouch
Ġa ction
Ġm ood
Ġf in
Ġp en
at ra
le op
Ġfor b
ent ly
ĠA re
ur al
ain s
ĠM al
ĠH ow
ĠH ath
ĠH igh
bl es
Ġent er
li ver
âĢĥ âĢĥ
Ġspo ke
Sw eet
Than k
yram us
leop atra
A men
c ri
i ving
Ġ es
Ġt each
Ġa p
Ġb ir
it ed
Ġg all
Ġha ving
Ġme m
ell o
He lp
ro s
res h
ag ue
Ġle gs
Ġlea st
Ġke pt
Ġro om
Ġmon th
Ġpri v
Ġem b
ĠCl arence
Ġpleas ure
ash ion
F rom
O f
S ee
a id
c her
d ge
o g
s ed
Ġt ail
Ġm ir
Ġf an
Ġd est
Ġd ag
an io
en ant
Ġth row
Ġp ar
Ġbe ha
st r
le x
ut enant
Ġis land
Ġon es
Ġst ru
Th us
ic al
ĠL ady
ĠF rom
ass anio
Ġpro per
Ġent reat
Ġspirit s
Ġins ide
Ġcry ing
Ġpurp ose
S ince
a z
i pp
m on
m ia
Ġt or
Ġa head
Ġm ag
Ġw id
Ġw icked
Ġli on
Ġre g
am es
Ġher self
ĠC ount
est s
ĠR ichard
ĠO thello
Ġbo ld
Ġtru ly
ab ly
Ġneed s
Ġhor rible
Ġcur se
Ġhur ry
Ġenem ies
Ġsec ret
ÂłÂłÂłÂłÂłÂłÂłÂł ÂłÂłÂłÂłÂłÂłÂłÂł
Ġdanger ous
Ġcru el
ott om
Ġquar rel
R ome
f ter
l er
Ġm ed
Ġw ake
Ġb ur
Ġy ear
Ġc reat
Ġo b
Ġhe ir
Ġg lo
ce ed
ck s
Ġwh ore
ĠC ome
Ġthy self
ĠL et
ak ed
ĠâĢ ĥ
Ġhand kerchief
ation s
Ġwit hal
Ġhast e
Ġstri ke
U n
h il
m ber
m und
u al
Ġm asters
re ed
Ġf ashion
Ġo h
ot ion
ent ion
ru pt
il ed
Ġne igh
Ġcan st
Ġwhat ever
Th ough
Ġbl ow
Ġbl ind
Ġsa ve
ĠD emetrius
Ġun less
ors es
Ġcou rage
Ġsleep ing
Ġcl aim
Ġmer c
ĠHer mia
Ġposs ess
Ġcle ar
ĠPom pey
Tom orrow
Ġble ed
H old
L ea
N ever
b ut
c er
n y
Ġf resh
Ġd iffe
Ġh orses
Ġg ro
Ġg ift
Ġu nd
nt o
ast ings
Th ink
ĠP yramus
ĠD romio
ran s
Ġle g
Ġson s
Ġarm s
Ġhigh ness
Ġbu y
Ġbri ef
Ġinst ru
Ġpain s
Ġcoun sel
Ġwed ding
gain st
Ġinno cent
Rome o
E x
P eace
Y ea
e el
g in
h ost
Ġ No
Ġm om
Ġm il
Ġm iss
or k
it es
Ġo cc
Ġg host
om p
om s
ot e
Ġin d
ri ght
id ed
Ġst eal
Ġre d
ĠA ll
th y
ie u
ard s
ĠL e
ort al
ĠO ur
Ġun p
Ġqu al
ol ute
um ent
ag es
Ġforg ot
Ġexc use
bo dy
oh n
ĠJul iet
o llow
p her
s ue
Ġ Wh
Ġs ix
in ing
re y
Ġy ield
Ġf le
Ġf arewell
Ġf etch
Ġc ol
Ġc atch
Ġh id
et ru
le y
as ca
ch io
Ġas leep
Ġde liver
Ġlo ving
ĠC on
Ġsh ut
ant age
Ġsha ke
ĠB assanio
ng th
ĠR o
Ġun k
Ġcha mber
Ġear ly
bl ed
Ġma jesty
Ġtre ason
Ġgri e
Ġval iant
Ġstre ngth
Ġsatisf ied
Ġty rant
Ġmom ent
etru chio
Q u
l ain
r at
s et
u de
Ġ ve
Ġt a
Ġa ble
Ġf ought
Ġd ri
Ġd ish
Ġc ity
ing ham
Ġg ar
Ġst o
ent io
Ġlo vers
ĠC an
and er
Ġsha d
Ġsha r
ĠM aster
Ġsee ms
Ġfa ct
ĠL ysander
ĠP ho
um e
Ġdis g
Ġjust ice
Ġad d
Ġad mit
Ġbeg gar
Ġsc orn
Ġmat ch
Ġfight ing
dd en
Ġjud ge
Lea ve
e ath
o ly
r or
r ont
Ġw ood
Ġw ound
Ġb ast
Ġb ones
Ġd ying
Ġl am
Ġl ack
Ġl ab
Ġc ross
es ides
ar ch
an g
Ġe le
Ġst ar
Ġre al
Ġso vere
Ġwill ing
ea ven
Ġgo d
Ġlove ly
Ġshe pher
ĠS c
ĠP ar
ĠD on
Ġri d
Ġen joy
um b
Ġcall s
Ġpray ers
Ġsm all
Ġarm or
St and
Ġcons ider
Ġtom b
Ġgre et
Ġbeh old
Ġwonder ful
Ġjud gment
Ġdro p
Ġwis dom
Ġcapt ain
whe re
ĠMal volio
ĠHigh ness
A m
D ear
b r
d le
h ile
m ond
Ġ (
Ġ est
Ġt ent
Ġt ale
Ġt rans
he art
Ġs en
Ġs igh
Ġs ens
Ġw all
on ato
Ġf ra
ir m
Ġfor ward
Ġli ber
Ġst ir
ĠA l
Ġan ge
Ġlo ver
Ġlo yal
ĠC leopatra
ru m
ant s
Ġv ile
Ġwor ry
Ġthink s
ĠH astings
ich mond
Ġway s
Ġother s
ĠJ ohn
Ġwar s
Ġcomm it
Ġstand s
Ġgu ess
Ġlie utenant
uth or
Ġwait ing
Ġban ished
Ġpresent ly
Ġdeser ve
Ġvirt uous
ĠRom an
act ly
Ġflat ter
Ġfortun es
Ġsch ool
C ass
F are
G entle
c he
c ing
m ore
m ian
p ic
u a
z o
Ġ er
in ion
is es
Ġbe ast
Ġfor ce
Ġu r
Ġso le
ell ow
ea se
Ġsh o
Ġsh out
Ġsu dden
ĠM ont
pp y
Ġcon qu
el ve
Ġr ound
Ġen c
Ġtru mp
Ġlea ving
Ġint end
ac es
Ġgra nd
Ġfe ed
Ġhapp ened
bl ic
Ġsc ar
Ġra ge
Ġsword s
med i
Ġbri ght
Ġaw ake
Ġadv ice
Ġvis it
Ġlad ies
Ġshepher d
A way
B el
K now
e ous
h old
l ight
n ight
n zo
u nder
y ed
ou n
Ġf ing
Ġf ive
Ġf rown
Ġc row
Ġth reat
Ġth ird
ow ed
Ġe qu
as ion
ore nzo
us ion
ĠT ill
if f
Ġgo ver
ast e
Ġj ew
Ġv ict
ic ul
fe it
ĠR ichmond
ort ia
Ġfri ght
Ġoff ice
Ġoff ense
iss ion
Ġreason s
uck ingham
Ġask ed
Ġjo in
for med
Ġhum or
Ġpa per
Ġprom ised
Ġfaith ful
An y
Ġdef end
Ġdamn ed
Ġoffend ed
Ġpun ish
Ġchallen ge
Ġtend er
B esides
F ollow
c le
i xt
l an
l ot
Ġa uthor
Ġs land
Ġw ounds
Ġb ird
Ġf at
Ġf ront
Ġl im
Ġc and
an qu
om es
se m
Ġwe ap
ĠA the
Ġan ger
Ġde al
Ġare n
ĠC asca
Ġno se
Ġgood bye
Ġsp ort
Ġsw ore
ĠP etruchio
Ġmo d
Ġpo l
ak es
Ġag o
Ġbo s
ĠW as
Ġtw elve
Is n
Do st
Ġim medi
ĠN ap
ĠN urse
Ġcl ot
Ġem pt
On ly
ĠU n
Ġvirt ue
Ġdep art
Ġimag in
Ġfie nd
Ġforb id
Ġmag ic
Ġshar p
H ello
P oor
U pon
b or
u ght
Ġ Y
Ġ There
Ġt ree
or at
Ġl oud
Ġc ir
Ġc ried
Ġh ost
Ġp ull
Ġg own
Ġg iving
Ġbe ll
Ġli ved
Ġst upid
us es
ĠT it
Ġwas n
ĠB uckingham
Th ose
Ġcon cl
Ġsa f
ist a
Ġpo s
ĠE m
ig o
ĠO n
Ġbo d
Ġbet ray
ran io
ĠThe y
Ġtr oo
land o
Ġfe w
Ġbeg in
Ġkind ness
Ġra in
Ġhead s
ĠK ather
Ġsm ile
Ġac cept
aint ed
der igo
Ġchan ce
Ġwo e
Ġpa id
ĠHe len
Ġvir gin
Ġaw hile
apt ista
ates by
Ġter rible
Ġmin ute
ĠRom ans
Ġsim ple
Ġtit le
Ġwid ow
rum io
Ġempt y
A nton
D amn
H as
H ark
a ith
a pp
e ks
l u
he l
on or
Ġf ig
Ġd ull
Ġl an
Ġl at
Ġc alm
Ġo bed
Ġo we
Ġp it
Ġof t
id ence
The ir
al a
Ġst ock
Ġdo ors
Ġre b
ĠA d
ra c
Ġwh ite
He ar
il ity
il ty
ie ur
ĠM ess
Ġour selves
ic er
Ġag ree
ort ens
pt ain
ĠCa ptain
Ġspeak ing
ĠW ould
Ġtw ice
ian ca
Ġpre cious
Ġper fect
Ġsm il
Ġac qu
Ġgu y
Ġend ure
St op
Ġdre ad
led ge
Ġhum an
ove red
Ġrec og
Ġinst ant
Ġop inion
Ġrequ est
eg an
ĠChar mian
Ġpu blic
Ġmann ers
Ġimport ant
Ġbir th
ĠLe onato
ĠPho e
ĠNap les
orat io
ortens io
Ġrecog n
K eep
L ord
M ore
M aster
O ut
b b
b ar
p ar
s in
w or
Ġt ou
he red
Ġd ra
Ġc a
Ġn aught
en ch
Ġp et
Ġg ate
Ġof fered
ir t
Ġst ood
ur s
Ġde are
He y
ĠB aptista
el ia
Ġsa v
Ġpr oof
Ġr ough
We re
Ġqu ite
Ġfriend ly
Ġgreat ness
ian s
Ġkeep s
Ġwit s
Be cause
Ġwar m
Ġjo b
Ġres p
Ġmess age
Ġtak ing
Ġsupp er
Ġval or
Ġgrow s
Ġid ea
Ġcoun ter
Ġdrown ed
Ġknight s
Ġbro ken
Ġce rem
Ġarri ved
Ġsovere ign
anqu o
A d
F irst
H eaven
N e
g are
m n
m and
o d
Ġa vo
Ġm as
in ite
Ġf eet
Ġf ier
Ġl un
Ġto p
Ġn ine
ot s
Ġwe alth
as c
ri ar
Ġst ars
Ġre ward
ra nd
Ġde bt
Ġse ven
am p
am ed
Ġsp eed
ĠM ay
ĠM ust
Ġv io
ĠL ike
um p
Ġser ved
Do es
Ġcha in
Ġfl ower
Ġbrother s
Ġhapp iness
Ġgu ilty
Ġdeser ves
Sh ould
rer s
Ġpriv ate
Ġcol or
Ġimmedi ately
Ġclot hes
H ad
P ut
f fect
o ss
r in
y pr
Ġs ort
ha med
Ġf ill
Ġd ies
Ġh ill
Ġe ffect
Ġas hamed
ra h
Ġan im
ĠC ypr
Ġne cess
Ġsu c
th ough
Ġsp ell
Ġwhe ther
ĠB ianca
ĠS he
ĠS aint
Ġar g
ĠF ort
ist ress
Ġr ise
ĠE x
aught er
ĠG rumio
Ġpart s
Ġsl ain
Ġfollow ed
Ġshow s
Did n
Ġtre m
Ġbu ried
Ġtak es
Ġtry ing
Ġdeser ved
Ġcertain ly
eter m
Tw o
Ġmark et
ĠLuc entio
cul o
str ous
Ġstru ck
ĠRo derigo
ĠPar is
Ġgover n
Ġbos om
ĠY ork
ĠHelen a
Ġrecogn ize
rin culo
ĠCypr us
M eth
R em
W ait
c i
c om
l aw
o b
o ke
w ise
Ġ Oh
Ġ Why
Ġt aste
Ġm our
Ġm ount
Ġw rest
in y
Ġb a
Ġy e
Ġd eterm
Ġc at
Ġth ro
at ors
ir ty
Ġst ab
Ġst uff
ĠA lex
ĠC atesby
Ġne g
han t
au nce
ĠS e
row s
Ġcon cer
Ġwere n
ĠL orenzo
Ġpl ague
Ġr is
ĠO li
Ġun f
Ġex actly
ag er
Ġch oice
Ġpro v
Ġwant ed
ĠG on
Ġcall ing
ĠTh y
Ġrem ain
ĠK ent
Ġcont ro
Ġres ol
Ġcrown s
Ġnat ural
Ġcountry men
Ġgre en
Sh ow
Ġcond ition
ĠOctav ia
Ar t
Pr ithee
Ġpract ice
Ġmem ory
ĠâĢĥ âĢĥâĢĥ
Ġbast ard
lan ch
gare t
aunce lot
ĠOli via
a x
i ot
r it
u g
Ġ ut
Ġw ives
or ge
Ġf are
Ġl ed
Ġc it
er v
Ġp ict
ed s
at ure
Ġme asure
Ġe ight
Ġfor m
Ġst ro
Ġre ceive
Ġan c
ain ed
Ġsp ent
Ġsp end
ĠAnd rew
Ġwould st
Ġam az
Ġj est
ĠH oratio
Ġar rest
ĠF riar
ĠP hil
Ġpo st
Ġr ans
ol k
orn s
Ġgreat er
ĠN ot
Ġwit ch
bl ing
Ġcomp let
Ġcont in
Ġstand ing
Ġmon strous
Ġfell ows
Ġboy s
Ġent ertain
Ġfeel ing
Ġwear ing
Ġtre asure
Ġpur se
Ġwind ow
Ġbri de
Ġadv antage
Ġinst ead
ĠEd mund
Ġban ish
Ġship s
Ġsk y
Ġref use
Ġsil ver
ĠCap it
Ġprot ect
Ġhu ge
Ġdag ger
Ġavo id
F ie
L ove
M ark
S e
b us
b ably
i est
n ough
n own
p ri
s ide
u ed
v ior
Ġm ortal
Ġb as
on est
Ġl ist
Ġc ell
er ve
Ġp ound
st able
Ġme at
Ġme lanch
et y
Ġyour selves
id us
Ġst ud
ord elia
ĠT om
Ġse x
Ġse al
You ng
Ġsh ore
Ġsha pe
ep idus
ĠS ome
Ġcon v
Ġfa il
Ġr ot
ĠE ven
Ġex per
Ġdis gu
Where fore
Ġad m
Ġfair y
Ġsm ell
Ġcont ract
Ġmatter s
Ġpri est
Ġchan ged
Ġpower ful
Ġbless ed
Ġweep ing
Ġstre ets
Ġspo ken
Ġid iot
rem io
ĠThis be
Ġamb ition
Ġeas y
ĠChar les
wh ich
Ġabs olute
ĠCon stable
Ġsole mn
Ġpos ition
Ġtroo ps
Ġdeare st
Ġarg ument
Ġcomplet e
ĠCapit ol
Ġmelanch oly
H ur
H ence
H ail
R ight
b it
c an
l ace
t ered
y ou
y lock
z en
Ġ ed
Ġ Here
Ġt ear
Ġs y
Ġs al
Ġs our
Ġs ins
re ad
Ġb ark
or al
or ious
Ġd ry
Ġl ar
Ġc red
Ġc ure
er k
er iss
Ġo w
Ġth under
om ach
Ġme th
Ġin j
ri el
ur ing
Ġde ceived
ĠT ur
Ġse par
ĠC ordelia
ru st
ro om
ge on
ct ly
au ph
Ġsw ift
Ġtell s
em ber
ĠP ortia
Ġmo ved
Ġr asc
ĠD auph
ĠR egan
Ġget s
Ġmar ch
Ġmar vel
esar io
Ġfather s
um ber
Ġfl ed
Ġfl owers
Ġru de
ac her
Ġdes per
Ġdead ly
Ġtr oth
ert es
Ġmind s
Ġwrong ed
Ġcons ent
Ġem p
Ġpers u
Ġpret end
ĠWe re
ĠMar garet
Ġmaid en
Ġeas ily
Ġwret ched
ĠOctav ius
Ġsus pect
Ġtail or
Ġfan cy
Ġbeha vior
Ġdiffe rent
Ġocc asion
Ġunk ind
Ġange l
Cass io
Ġcand le
Ġbod ies
ĠPhoe be
Ġrans om
eriss a
ĠDauph in
E d
R e
S omet
W ilt
a ertes
c um
i vil
i vers
k ay
r im
u ri
u ation
w all
w are
y ond
Ġ ir
Ġt eet
Ġa ch
ou nce
Ġm ut
Ġw ide
Ġw ander
Ġb ill
Ġf ru
Ġf ish
Ġd ar
it ious
it ude
Ġl aid
Ġc ust
er ona
Ġo bs
ing ly
an ley
en ess
at ive
ut io
Ġis sue
oo p
Ġst ones
Ġst omach
Ġdo gs
ĠT ower
ĠC orn
Ġup set
Ġshe d
ĠM erc
Ġam ong
Ġsw orn
are nt
Ġcon j
Ġab ove
el t
ĠH arry
ĠL auncelot
Ġpl ans
ĠD en
Ġpro vo
Ġpro ceed
Ġpro bably
ĠThe n
ĠG remio
ĠTh ough
Be fore
Ġrep ent
Ġfear ful
Ġpra ised
Ġdou ble
ĠOr lando
Ġclo ck
Ġhang ed
Ġsn ake
ĠWho se
Ġfault s
Ġtem p
Ġprep are
Ġyes ter
Ġbook s
Ġemb race
Qu iet
Ġshad ow
Ġlab or
ĠSc ot
Ġliber ty
Ġtrump et
Bel ieve
Ġauthor ity
Ġcontro l
Ġteet h
S ignior
h ood
p o
r on
u ct
Ġ Yet
Ġt ort
Ġt able
Ġs qu
in a
re p
Ġb ab
or se
Ġd ance
Ġl est
Ġhe ra
Ġp ick
om an
Ġe v
Ġwe ight
Ġu g
ad ed
Ġdo ct
Ġre ceived
ĠT ranio
am s
ter n
il an
han ge
Ġsh rew
ie ves
ĠM ore
ĠB ur
Ġout side
Th ree
ul via
Ġbl ows
ĠH ortensio
Ġun ha
un ning
Ġri de
Ġhas n
ĠThe se
ĠG e
Ġke y
Ġmean ing
Ġdes ires
Ġdu ked
Ġpre vent
Ġro b
Ġfriends hip
Ġhar sh
Ġsm art
Ġhusband s
Ġansw ered
Ġbre ast
Ġent ire
Ġdevil s
Ġsister s
Ġtra vel
Ġhonest y
Ġgl ass
Ġass ure
Ġthr one
Ġtri ck
Ġcourt es
Ġtong ues
Ġgold en
ca pe
Ġexp ress
Ġstart ed
May be
Ġtem pt
Ġamb itious
Ġappro ach
pl ace
Ġmann er
ĠSh ould
Tru ly
Ġmurde red
Ġfin ished
Ġmonth s
Ġcreat ure
Ġglo ve
heart ed
Ġcir cum
ĠMess ala
Ġvio l
Ġcit iz
Ġcomplete ly
Hur ry
Ġhera ld
B rutus
D raw
F ather
F aith
P l
c ha
c ap
e rest
i pped
o nder
r is
s ing
v ious
Ġ ven
Ġ ignor
Ġt ired
ha ps
Ġb ow
Ġb ot
Ġb are
Ġb ite
Ġf reed
Ġc ool
Ġc up
an ces
Ġp h
Ġp ort
Ġp owers
Ġme nd
ce nd
Ġre ve
us s
Ġde mand
ĠT op
Ġlo cked
ĠC upid
Ġkn ife
Ġkn eel
il i
Ġknow ledge
Ġlike ly
ĠM ilan
Ġsir rah
ĠB l
ĠB anquo
ĠS y
Ġsw e
ic a
Ġfa ces
Ġany more
Ġsa ved
ĠL epidus
ĠL aertes
Ġpl uck
ĠP eter
Ġmad man
Ġun s
ave s
ag ed
Ġear l
ac ed
ac le
Ġim m
Ġim per
ĠN erissa
os ition
Ġsle pt
per or
Ġkind ly
Ġpe as
Ġturn s
Ġbre ed
Ġmist ake
aint s
Ġcons p
ĠV erona
Ġche ek
Ġtre acher
Ġord ers
Ġord ered
Ġco ver
Ġsupp ort
ĠĠ ĠĠ
Al ack
Ġsing le
Ġdrun ken
Ġdel ight
Ġtrait ors
Ġknock ing
Ġwrit ten
Ġcast le
Ġsum mer
Ġconst ant
Ġneigh bor
Gentle men
Ġscar ce
icul ar
ĠAthe ns
Ġsaf ety
sin o
Rem ember
Ġcred it
Ġcircum st
ĠTop as
F air
R un
S ha
S end
S ure
a wn
c on
i pe
l m
m ark
o f
Ġ ver
Ġt est
Ġt une
Ġs ell
Ġs ink
Ġm al
ve st
Ġf il
Ġf ears
Ġd et
Ġd well
Ġd ressed
Ġc re
Ġc ost
er il
Ġn ames
Ġn aked
Ġh ol
Ġo d
an ish
Ġp le
Ġp ure
Ġg ross
ed y
ed ious
Ġbe yond
ut ion
Ġe ld
Ġst ick
ĠA riel
Ġde w
Ġde fe
Ġde cl
ĠT rinculo
Ġse es
Ġher s
if y
il s
il ia
Ġno bl
ive red
han o
han ce
nt il
Ġhear ing
ie w
ĠM ake
ep hano
ĠS p
Ġv ows
Ġab used
em pt
Ġpo ck
Ġshould n
Ġbr ings
Ġun b
Ġday light
Ġint erest
Ġru in
Ġru ined
Ġkill ing
Ġheaven ly
Ġcomp l
Ġper for
Ġplay ing
Ġcomm end
Ġsm o
Ġcl ou
Ġbel ong
Ġbear s
ons ieur
Ġact ors
Ġhum ble
Ġins ane
Ġins ult
Ġsend s
Ġco z
Ġwise ly
Ġaw ful
Ġsupp osed
Ġsit uation
Ġreturn ed
Ġbes ides
Ġdisp leas
Ġbeat en
Than ks
Ġimag ine
Ġshort ly
Ġwin ter
Ġwast e
Ġmeant ime
Ġce le
Ġhu ng
Ġaff air
Ġsus pic
Ġmid night
Ġprof it
Ġforgot ten
Ġcommit ted
Ġequ al
Ġimagin ation
ĠKather ine
Ġresp ons
Ġcerem ony
Ad ieu
inite ly
Ġsuc cess
Meth inks
Ġthro at
Ġdesper ate
Ġyester day
ĠGe orge
? âĢĿ
B id
E ither
E nough
L ike
M ac
M istress
a fe
a ction
g und
h y
h ouse
m ission
n at
n am
p ly
r ite
t ic
Ġ Go
Ġt ame
Ġs au
Ġw ench
Ġb en
Ġb ottom
is ing
Ġf ate
Ġf elt
Ġd ue
Ġl end
Ġc hat
Ġc ries
Ġc unning
er able
Ġhe ld
an k
Ġp al
om ed
le ct
im in
im ent
Ġwe ather
ri a
al ty
ra b
ur der
am b
if ied
ess ica
il st
ie ces
ĠM en
ĠM onsieur
Ġour s
Ġcon ce
âĢĿ âĢĶ
Ġpl aces
Ġpo et
ak ing
ĠD un
ĠR e
Ġex ec
Ġen g
ĠW ell
Ġbec omes
ac y
ian ce
Ġdes ert
Ġpart icular
Ġpray er
Ġstay ed
Ġdear ly
Ġra ise
Ġsleep s
ction s
Ġask ing
Ġbra in
Ġfollow s
iet y
ĠBe ing
Ġcare fully
Ġhands ome
Ġfeel ings
Ġrun ning
Ġsent ence
Ġhum bly
Ġrec ord
Ġdream s
Ġland s
Ġsing ing
ix ed
Ġfur y
Ġhate ful
Ġcar ri
Tw as
Ġlear ned
Ġluck y
Ġmessen gers
Ġprep ar
Ġprep ared
Ġprison er
Ġbro ke
ĠCap ul
Ġwret ch
Tru e
Ġaction s
Ġpen alty
Ġdest ro
Ġfle et
Ġsudden ly
Ġjew el
Ġvict ory
Ġlan gu
Ġlat er
ĠCorn wall
ĠMerc utio
ĠScot land
Ġug ly
ĠBur gund
Ġcitiz ens
Ġcele br
ĠBurgund y
B r
D is
D eath
H ath
M ine
S et
T ybalt
a ff
a ze
b ury
c ol
f le
g ged
p ent
r ate
w ith
Ġ Now
Ġt edious
Ġa y
Ġa ught
Ġs ides
Ġm art
in ius
Ġb other
Ġb ase
Ġf art
Ġl a
Ġc ivil
Ġn amed
Ġth rice
Ġg ard
Ġg oose
om m
Ġme re
ill y
as y
ri ve
ĠA gainst
ord ing
us hed
Ġse arch
Ġlo d
ea lly
Ġgood ness
au nt
Ġwas h
ear d
Ġsee med
ĠB ottom
Ġv ain
ic ate
Ġor c
ĠH onor
ĠE ar
Ġex am
Ġhad st
Ġnight s
ĠW ors
Ġfo nd
Ġfl ood
Ġru le
Ġad ieu
Ġbeg ged
Ġtalk ed
sw er
Ġsl ow
Ġper il
Ġapp ears
ud ge
Ġgu ilt
Ġjo ke
Ġimp oss
Ġremem b
Ġwear y
Ġchar m
Ġcur t
Ġwind s
Ġpres ence
Ġwalk ing
Ġpleas ed
av y
Ġexp lain
Ġter ms
Ġcar ried
Ġdel ay
ĠVen et
Ġtem per
Ġdro ps
Ġprin cess
Ġcor rupt
Ġwis hes
Ġfam ily
Every one
Every thing
Ġprot est
tw as
Ġneck lace
ipp i
Ġmed ic
Ġsto pped
Ġdisg race
Ġsens es
Ġshout ing
oun ter
Ġfing er
Ġsland er
ĠEm ilia
Ġobed ient
Ġdra wn
Ġmarket place
Ġpict ure
Ġanc ient
ĠPhil ippi
Ġmeth inks
uri ous
Ġev idence
Ġfreed om
ĠWors hip
Ġimposs ible
A b
C on
F ool
H onest
M en
M urder
N one
R ead
R eally
S it
S uch
e x
f olk
h ow
i am
m or
n ock
o int
s y
v al
Ġ ing
Ġw ra
Ġw ished
Ġb and
Ġb ury
is ure
Ġd ign
Ġl ines
Ġn un
Ġp ear
Ġp red
Ġg rown
Ġbe nd
ill ed
Ġfor ces
Ġu ng
Ġk ins
Ġst ol
ĠA r
ĠA ud
ord s
Ġse ason
Ġlo ath
Ġkn e
Ġall ow
Ġsh ot
Wh ile
Ġlord ship
ĠS ignor
Ġv iew
ic ious
Ġmad ness
ĠO ut
Ġun nat
Ġqu it
Ġfri ar
ass ad
Ġch oo
Ġpro ble
Ġle isure
Ġfo lly
Ġgreat est
Ġear n
Ġpart ly
Ġsc ared
be red
Ġper ceive
Ġfair ly
Ġsure ly
Ġshow ed
Ġfall s
Ġche eks
iz ed
Ġtre es
Ġworth less
Ġlight ning
Ġsad ness
Ġatt ention
Ġacc us
Ġacc omp
Ġbless ing
no bar
Ġstre et
Ġfree ly
Ġdef initely
Ġlau g
Ġdel ivered
Ġpoison ous
ĠQ u
ne y
Ġjealous y
Ġcond em
Ġprop he
Ġdag gers
Ġtor ch
Ġqual ity
Ġsen ators
Ġbetray ed
ĠAd am
Ġacqu aint
urs day
Ġclou ds
Mac beth
ĠAud rey
nobar bus
B oth
H ast
L ady
M any
P ro
P ardon
a ur
a ving
b orn
d o
e v
m m
p ed
r s
t ime
u ce
w hat
w ho
w oman
y r
Ġ vent
Ġt all
Ġa im
Ġm ention
in ary
re ck
it ic
Ġc her
Ġc op
Ġc orn
Ġc ock
Ġc overed
Ġto t
er al
Ġh y
Ġh oney
Ġh unt
ĠI nd
Ġhe els
an ia
Ġp in
Ġp ush
Ġp ieces
Ġg ently
Ġha z
Ġe p
Ġe vent
ill ing
Ġfor ty
Ġfor mer
ad ua
Ġnot ice
ri f
Ġli ar
Ġst ret
Ġre j
ĠA t
Ġso l
Ġsp ite
ĠB el
Ġj ail
Ġv ar
Ġv ow
Ġfa ire
ĠH ad
ĠP adua
Ġpro d
Ġpro s
Ġint ent
Ġold er
Ġtr ade
Ġfe e
ĠJ ove
ĠJ essica
Ġbeg an
Ġsc old
Ġyoung er
Ġper form
Ġplay ed
Ġcont r
Ġsomet imes
Ġbad ly
ĠBe fore
Ġvillain s
Ġact ually
Ġgl ory
Ġpri ze
inn ing
Ġpur cha
Ġbus y
Ġhold s
Ġacc ount
Ġrec ently
ĠU nto
cl aim
Ġdru m
Ġadv ise
Ġadv ance
no on
Ġdrink ing
Ġval ue
Ġsound s
Ġdisp atch
Ġcr imes
ĠSt ephano
Ġid le
Ġvirt ues
Ġdeed s
Ġexc hange
Ġburn ing
Ġran k
Ġserious ly
Ġsubject s
Ġmid dle
Ġdesp air
Ġtor ment
Ġgro an
Ġqual ities
Ġsto le
Ġloyal ty
Ġweap on
Anton io
Ġdread ful
Ġlun ch
Ġanim al
ĠFort une
ĠEx eter
ĠâĢĥâĢĥâĢĥ âĢĥ
Ġlar ge
ĠDen mark
Ġcourtes y
Ġlangu age
Br other
Ġorc hard
Ġkne es
Ġunnat ural
A fter
F ri
F ear
H ang
K nock
L uc
L ead
O nce
O kay
a ld
a ly
b ors
d uff
f all
f fered
i en
m other
n er
o on
t on
u pp
u ild
z z
Ġ ought
Ġt ar
he st
Ġa pt
Ġs alt
ha nd
is c
is ible
Ġy ellow
or ous
or ies
Ġf ant
Ġf irm
it able
Ġl ark
Ġn ation
Ġh ig
ĠI r
ĠI nto
en ing
en ry
Ġth rust
Ġp ack
Ġp ress
Ġp ier
Ġbe ef
ot ed
Ġha unt
ell a
Ġwh is
Ġwh ipped
if ic
ĠC al
ĠC inn
ĠC esario
ter s
ea red
ro ad
Ġsh ines
Ġsu ffered
ant ua
Ġgood ly
Ġsp ec
ast y
ĠM on
ĠS al
Ġwor ship
ic ers
Ġbl unt
ĠH ar
ak en
ĠE ros
ĠD oth
Ġdis m
Ġdis ease
Ġaf eard
Ġlea ves
Ġwr ote
Ġwhere fore
Ġfl ies
Ġru led
Ġfe ather
Ġhapp ens
Ġbeg ins
Ġstay s
Ġyoung est
Ġra re
Ġbed room
Ġgu est
Ġarm ed
Ġbra ins
Ġafter noon
St ill
Ġstran ger
ail s
Ġwork ing
Ġass ume
Ġrec over
Ġbu ild
Ġcrown ed
With in
Ġlaw s
fort un
Ġcr ime
Ġcr imin
ĠSt anley
Ġsk in
Ġsk ill
ĠNor folk
Ġdist ur
Ġdel icate
Ġfea red
we re
Ġsatisf action
Ġfam ous
len ess
Ġinv isible
Ġmurde rer
Ġap art
Ġgall ant
Ġlam ent
Ġenc ounter
Ġweap ons
Ġconcl usion
wor thy
Ġcounter feit
Ne ither
Ġut ter
Ġbanish ment
Ġdisgu ise
Ġrasc al
Ġcust om
Ġdoct or
cap ed
Ġswe at
Ġsmo oth
ĠVenet ian
Ġmedic ine
Ġproble m
Ġrej oice
ĠCinn a
B ear
C l
C he
D oth
L o
P er
T oo
a fter
c us
e em
t were
x com
Ġ Good
Ġt id
Ġt aught
Ġt ried
Ġa ud
Ġs an
Ġm otion
Ġw ings
ha s
Ġb ag
Ġb ac
Ġb ount
is ion
Ġd ow
Ġd ust
Ġd ress
Ġd ried
it er
it ary
er ing
Ġo dd
en c
Ġth ither
Ġth ief
Ġp or
Ġp hil
Ġp arent
ay s
ut s
Ġis le
Ġwe eds
Ġst eel
ĠA m
Ġso oth
ell en
Ġde ce
Ġwh ip
Ġse at
Ġse ver
am ing
Ġlo g
ĠC or
ru ction
Ġsu ck
Wh ither
ast ing
ĠM antua
ĠB ar
ĠS uch
Ġwor m
Ġab o
op her
Whe ther
Ġsa c
ĠL ear
ĠF lu
em ent
Ġpl ot
ak er
ĠE p
ig ence
Ġri ver
ol a
Ġpro lo
ĠG reat
ĠG uild
Ġhon ors
Ġcha st
ian o
Ġgra ves
Ġpre y
Ġbeg ging
Ġro pe
Ġwon t
ĠTh ursday
Ġhop es
Ġcomp lain
Ġper mission
Ġserv ices
Ġbra w
Ġbad e
ĠBe cause
Ġcare ful
Ġvillain y
Ġact ing
An swer
Ġtri um
Ġbu ri
Ġsick ness
Ġpleas ant
Ġmis ery
Ġhard ly
Ġdist ract
ĠIt aly
Ġtoward s
Ġweak ness
Ġlaugh ing
Ġamb assad
Ġcoward ly
Ġfun eral
Ġty ran
ĠSh ylock
Ġdesp ite
ÂłÂłÂłÂłÂłÂłÂłÂłÂłÂłÂłÂłÂłÂłÂłÂł ÂłÂłÂłÂłÂłÂłÂłÂłÂłÂłÂłÂłÂłÂłÂłÂł
Ġbur st
Ġmerc hant
Ġgift s
Ġhid den
rat iano
ĠCan not
umb ers
ĠMont ague
Ġfing ers
Ġmod est
Ġmod esty
ĠTit inius
ĠTit ania
Ġfig ure
Ġsmil ing
Ġfier y
Ġstab bed
ĠGon eril
Ġstro ke
pri ate
Ġadm ir
Ed mund
Ġfru it
Ġunha ppy
Ġduked om
Ġbot tle
Ġpeas ant
Ġod ds
Ġpock et
Ġdispleas ure
Ġben ef
Ġfart her
Ġgard en
Ġexam ple
Ġlaug hed
yr rel
Ġphil os
ĠFlu ellen
B et
R o
R ichard
S ister
S ignor
T onight
U ntil
W rite
b on
e ven
i bly
m outh
p he
s er
u bl
w rit
z ed
Ã ©
Ġm ot
Ġm oral
re me
Ġb ought
Ġf ut
Ġf ro
Ġd irty
Ġl u
Ġn asty
ĠI lly
ar us
ar row
Ġth read
Ġp our
om as
at ic
at ience
at cl
Ġha il
Ġin k
Ġin cl
Ġin vent
et ell
ut ed
im ber
ce llent
Ġfor sw
Ġwe ek
ad es
ri pp
Ġas ide
al es
Ġli est
Ġst ing
Ġre vol
ĠA b
Ġso ber
ur st
Ġde g
Ġne phe
Ġno on
Ġsh own
Ġsu p
nt ip
Ġsp ot
ind arus
Ġsha m
Ġsha re
ie ved
ous es
Ġam en
ĠS w
ĠS il
ĠS ince
Ġj ack
Ġab road
Ġthen ce
Ġsa cri
ĠL est
ĠF ather
ĠF ulvia
Ġmo an
Ġr ash
Ġun w
Ġbo x
Ġbo ar
Ġmust ard
ĠCa ius
ol ab
ran k
Ġle ek
So ft
Ġdes cri
Ġpart ed
Ġsle w
Ġsl aughter
Ġra ised
Ġper f
Ġplay s
Ġcomm ission
Ġfollow ers
Ġunder t
Did st
Ġpri ce
Ġass ured
Ġchar ity
Ġcur rent
ĠOr sino
Ġord inary
Ġtri cks
Ġco xcom
Ġwalk ed
Ġdisp osition
Ġmis erable
ift een
Ġstrong er
Ġread ing
Ġden ied
ĠMac duff
Ġcoun c
head ed
Ġcle ver
Ġpoison ed
Ġdamn Ã¨d
Ġprince ly
Ġrel ig
ĠMar ch
Ġgrief s
pr ise
ĠEgypt ian
Ġsil ence
Ġappro priate
ĠLuc ius
Ġinv ite
ib an
Ġopp os
Ġtit les
Ġdire ct
Ġes cape
Ġbir ds
Ġbeha lf
Ġpossess ed
Ġdiffe rence
Ġund one
Ġinstru ct
Ex cellent
ĠWh om
Ġshad ows
Ġsigh s
Ġjew els
Anton y
Ġstock s
icer o
Ġsmil es
Ġtou ched
Ġtou ches
Ġca used
Ġsav age
Ġmas qu
Ġtrem ble
Ġamaz ed
Ġrot ten
ĠTur k
Ġach ieve
Ġdar ling
Ġconsp ir
Sha me
ĠCapul et
Ġrememb rance
Ġkins man
Ġtid ings
Ġbac hel
Ġdow ry
Ġsac red
Ġprolo gue
Ġtrium ph
Ġfut ure
ĠIlly ria
atcl iffe
Ġnephe w
Ġsacri f
olab ella
A ren
U p
b ble
c hance
d ain
d raw
f er
h ol
i ver
i ber
j est
l ies
l uck
p hel
r atch
t een
t les
u le
v ive
v ous
Ġt e
Ġm ild
Ġm aint
re ak
Ġb all
Ġb orrow
Ġy onder
or ough
ve y
Ġf ain
Ġf ame
Ġf aster
Ġf aint
Ġf ifteen
Ġd umb
Ġl ine
Ġc as
Ġc aught
Ġc uck
Ġto il
Ġto ken
er n
Ġn est
Ġn urse
Ġn umber
Ġo ce
ar io
Ġhe ed
Ġhe al
en e
en ster
Ġth ieves
Ġp ot
Ġp ath
om in
Ġbe lo
Ġha w
Ġin fect
se qu
im ate
ir nam
ad s
ri c
Ġas sem
al f
Ġst ain
Ġst ep
Ġst raw
Ġre nder
Ġre ign
us hes
our ney
ĠC imber
What ever
ro d
Ġman age
Ġsh ook
Ġgood s
Ġcom b
pp ing
ĠB alt
Ġv an
Ġout ward
Ġwor ms
Ġshall ow
Ġany way
op e
Ġpl ant
ĠP ros
Ġr hy
ound rel
ĠD over
un ity
Ġen for
Ġhat es
Ġmar ks
um n
ran c
Ġmay st
urn ia
ĠW all
ĠG ive
ĠG rey
Ġhon ored
Ġcha rac
ors et
Ġdeath s
ress ion
Ġpart y
os al
Ġro gue
Ġwit hered
bl et
Ġsc oundrel
Ġcomp are
Ġcomp ass
Ġapp re
Ġapp et
ab ian
Ġwrong s
ons ense
ret ion
li ct
Ġwo es
Ġpass ed
Ġcra ck
Ġcur sed
Ġfore head
Ġatt ack
Ġhigh ly
Ġpleas es
Ġdisc uss
Ġdisc retion
Ġsit ting
Ġban k
Ġborn e
ĠRosal ine
Ġpain ful
Ġcommand ed
Ġsur geon
Ġjoy ful
Sw ear
Ġfour teen
ph urnia
Ġfield s
Ġconfess ion
ec ius
Ġsorrow s
Ġinter p
Ġdec ided
Ġloss es
ub al
Ġdiv ine
Ġforb ear
Ġmir th
Ġbur den
Ġcreat ures
Ġob st
Ġleg ions
Ġunk nown
Ġwound ed
Ġsho es
Ġpull ed
Does n
ci ally
Ġneg lect
Ġabsolute ly
Ġemp lo
rep are
Ġignor ance
Ġimm ortal
Ġnobl est
Ġaffair s
fle ur
Ġdign ity
Ġpurcha se
ĠMon mouth
ĠHar fleur
Ġparent s
ĠGuild enster
Ġburi al
ubl ius
etell us
phel ia
Ġoce an
ĠPros per
Ġcharac ter
ĠGuildenster n
C ould
C apt
F ind
G reat
I ago
T ill
T ime
W ake
W atch
c or
c ra
g o
j ust
k in
l ook
l ied
m ing
m aker
n al
p es
p ass
r ous
s c
u pt
v Ã¨d
w d
w ed
Ġt ied
Ġs ings
Ġw ing
Ġb ind
Ġb row
is Ã¨d
ll us
or ing
Ġf urn
Ġd am
Ġd ine
Ġd iff
it ive
Ġl ap
Ġc au
Ġc ab
Ġc amp
er ved
Ġn avy
Ġn umbers
Ġn arrow
Ġh ire
Ġh orns
ar ing
ar ies
Ġhe at
Ġhe lm
en ces
Ġth ick
Ġp an
Ġp aint
Ġp ainted
Ġg ent
Ġg ather
st one
at ives
Ġe ag
Ġe ff
Ġfor feit
as hed
ri d
id ent
id ius
al o
Ġli ons
Ġst one
Ġst age
Ġdo zen
Ġre he
Ġre vel
Ġso re
ore s
Ġhis t
ell ario
Ġan on
us hing
us band
Ġde ceive
Ġde mon
ĠT yrrel
Ġlo ck
Ġgo ss
Ġgo dd
Ġkn ee
Ġsh r
Ġsu its
Ġsu gg
Ġsp l
Ġsp ring
Ġshe ep
Ġhere after
ous ly
ĠM r
Ġthan e
ĠB irnam
Ġj ourney
Ġv o
Ġv ouch
Ġsw im
ic ed
Ġcon vers
Ġab bey
fe rence
el ess
ĠH enry
Ġar row
Ġpr on
ĠL ie
ĠL ook
ĠL aw
ĠL ove
ĠF l
ĠF er
ĠP ro
Ġal oud
Ġr ites
Ġshould st
ĠE nobarbus
ĠD ay
art ed
Ġun m
Ġun re
Ġri pe
Ġhad n
Ġhand writ
ol ves
Ġpro claim
Ġaf fect
Ġser ving
Ġint ell
pe red
pe cially
Ġcha ir
ip l
Ġgentle woman
ac hed
Ġdes cend
Ġcou ple
ĠN ile
ĠN ature
Ġfe ver
Ġsweet est
Ġsle e
ward s
Ġwit ty
Ġtalk s
Ġput s
Ġput ting
Ġstay ing
Ġcomp lex
Ġra ven
Ġper haps
ap h
Ġplay ers
Ġhar k
Ġrep ly
Ġcl erk
Ġmon ument
Ġmon arch
Ġend ed
Ġsomet ime
Ġfollow ing
Ġmer it
Ġbre ach
rant z
Ġstran g
As k
Ġrest ra
ĠWith out
ĠHer cul
Ġact s
Ġche at
Ġchar ged
Ġchar ms
iz ing
Ġcra b
Ġacc use
Ġacc used
Ġwalk s
ont ent
Ġeat en
Ġsoon er
Ġposs ibly
Ġdisc our
Ġdisc har
Ġnear by
ĠRos enc
ĠĠ Ġ
Ġlisten ing
Ġtrou bled
Sh ut
Ġdark ness
ĠWill iam
Ġpatient ly
Ġwoo ing
Ġwoo ed
Ġsil ent
Ġmouth s
Ġfun ny
Ġsafe ly
Ġplain ly
Ġabs ence
tw ill
Ġtreat ed
Ġaffection s
Ġdire ction
Ġhealth y
Ġprof ess
Ġext rem
Ġext reme
Ġmir acle
Ġob ject
Ġclear ly
Ġbleed ing
Ġmil es
Ġmil itary
Ġgar ments
Ġele ven
Ġest ate
Ġsen ate
Ġwall s
ĠAl b
Ġgrand mother
Ġfat al
sem ble
Ġpol ite
ĠUn less
ĠEm peror
Ġobed ience
Ġspell s
Ġba by
Ġris k
ĠGon z
Ġstud y
Ġir on
Ġtemp est
Ġtort ure
Ġph ys
Ġreve rence
ĠSy rac
Ġeld er
Ġdefe at
ĠSp eak
Ġdestro y
col m
omm end
Fri ends
Ġspec ial
Ġcrimin al
Ġaud ience
ntip hol
Ġrelig ious
Ġbachel or
ĠProsper o
Capt ain
Ġcau ld
Ġgoss ip
ĠLaw rence
Ġhandwrit ing
Ġcomplex ion
ĠHercul es
ĠRosenc rantz
) ,
B l
C al
E ros
F ort
L ay
M ar
O ff
R et
T ut
T alk
V illain
b ast
d ed
e yed
f ord
f ather
g ive
h or
m in
n es
n et
n ian
p ol
r ison
s p
s u
t e
t s
u ish
Ġ vers
Ġ eter
Ġt ur
Ġa le
Ġa ck
ou rage
Ġs aint
Ġs illy
Ġm ain
Ġm ud
Ġw ert
Ġw aves
in ces
re nder
Ġb ull
Ġb ait
Ġy ond
Ġf en
Ġf urious
Ġf rank
Ġd er
Ġd ig
Ġd irt
it ch
Ġl en
Ġc am
es ter
ar se
Ġhe ight
en o
en ance
Ġp ill
Ġp ir
Ġp ig
Ġp ause
Ġg ain
Ġg ru
Ġg ates
ot ing
se ed
ut es
ke y
as ed
ri ke
ri ef
ri dge
al b
al ed
Ġli qu
Ġli ked
Ġst at
Ġdo ve
Ġre ck
Ġre nown
âĢĶ âĢĿ
ĠT ubal
am y
am ent
ru n
Ġsh ri
Ġsu llen
Ġsp are
Ġsp ace
Ġknow ing
Ġwas hed
Ġhear s
ie l
ĠM etellus
Ġsee ing
ĠB et
ĠB oth
ĠB rab
Ġj u
Ġj ump
Ġv ill
Ġus ur
ard seed
Ġab and
Ġor g
No body
Ġar ran
ĠF ranc
ĠP ut
ĠP oor
ĠP indarus
ĠP ublius
Ġmo ving
ist s
Ġr ush
Ġshould ers
ĠD eath
ort unity
ĠO phelia
Ġhow l
Ġbo ot
Ġbo ast
ick le
Ġch ide
Ġoff icers
Ġdis app
ĠThe ir
Ġser pent
ĠG ratiano
Ġwr ath
Ġfo x
Ġcha se
Ġfl out
Ġfl ight
Ġwom b
Ġim age
Ġdu el
Ġsweet er
Ġkeep ing
Ġro se
Ġpray ing
Be hold
Ġwar ri
Ġwar like
Ġcomp an
Ġsl aught
Ġsl ip
Ġapp oint
Ġapp eared
Ġswear ing
Ġhar vest
ert ime
Ġcont empt
Ġbest ow
Ġbring ing
Ġbra g
ĠV ol
Ġcount enance
Ġmother s
Ġrun s
Ġpri de
Ġmeet ing
Ġremem bered
Ġgot ten
Ġpass ing
Ġbus h
Ġatt ract
Ġtri cked
Ġnat ive
Ġmur d
Ġeat ing
Ġbless Ã¨d
Ġweep s
ĠEd gar
Ġdan cing
Ġhang s
Ġsn ow
Ġsn ail
Ġgener ous
Ġwat ers
Ġcommand s
Ġsub st
Ġtrou bles
ĠMac mor
ĠNor way
Ġcle an
Ġevil s
Ġstart s
Ġdamn ation
Ġslave s
Ġrel ative
ĠMar cus
Ġref used
Ġbar gain
Ġcor p
Ġrespect s
Ġfam ili
Ġcoward s
Ġinf lu
Ġsim ply
Ġdev otion
Ġcheer ful
Ġsail ors
tw ixt
Ġmurde rers
Ġinc re
Ġprop hes
Me an
Ġap ace
Ġgall op
Ġdest iny
Ġproper ty
Ġleg al
Ġinstru ments
Ġve x
Ġdri ve
Ġdish on
Ġdisg ust
Ġele ments
Ġest eem
oun ced
Ġpunish ment
Ġlim it
ĠAthe nian
ĠKather ina
Ġwoe ful
Ġstock ings
Ġpet ty
Ġanim als
Ġnecess ity
Ġgovern or
Ġgovern ment
Ġmour n
Ġmour ning
Ġdeterm ined
Ġresol ved
Ġpersu ade
ĠThese us
Ġrob bed
Ġviol ent
Ġfil thy
Ġbelong s
Ġsuspic ion
Ġrespons ib
amb io
ĠMen as
ĠDun can
Ġprepar ation
Ġlod ging
Ġpear l
Ġhaz ard
ĠIr as
Ġwhis per
ĠCal iban
Che er
Ġsan ct
Ġsever al
Ġabo ard
ĠEp hes
Ġphilos opher
Bet ter
Ġcoxcom b
Ġbelo ved
Ġhist ory
Ġgodd ess
Ġsugg est
Ġcauld ron
bast ian
Ġack now
ĠBrab ant
ĠMacmor ris
Ġfamili ar
A pp
B less
C ons
C urse
C leopatra
D es
D own
H ie
K ill
K ind
L ive
L ie
M on
M al
R ep
S il
S leep
T urn
b ear
b lo
b oy
f ellow
g own
g ripp
h orse
m y
o c
p en
s ieur
s afe
u ary
v ius
w ixt
Ġs ane
Ġm ass
Ġw ager
in br
re et
nd ello
Ġb ent
is hes
Ġy ell
Ġf u
Ġf lock
Ġf ixed
Ġd un
Ġd urst
it ation
it ical
Ġl ower
Ġc ave
Ġto e
Ġto ad
er man
Ġh orn
Ġh ounds
Ġh ouses
an ks
Ġth irty
Ġth orough
Ġp ate
Ġp age
Ġg id
Ġg aze
om en
ow land
Ġbe lly
Ġha bit
Ġin her
Ġe ast
ir med
Ġwe igh
ad ing
Ġwith draw
id s
Ġli p
Ġli kes
Ġre pe
Ġre ach
Ġso c
Ġan n
us ing
ur ance
Ġde b
Ġwh ither
ĠC ould
ea rer
ro ach
Ġsu per
th orn
Ġsp it
Ġshe ets
ink led
ĠM ade
Ġsir s
ĠB ellario
ĠS ee
Ġj ot
Ġj erk
Ġv ul
Ġv ice
Ġv ol
Ġv antage
Ġus ual
io ndello
Ġwor n
ic y
Ġcon vey
Ġab use
Ġbl ast
Ġbl ue
Ġbl ush
My self
âĢĿ !
ĠL ond
ĠF abian
ĠP l
ĠP ist
ĠP lease
Ġpo em
Ġal as
Ġr oof
Ġbr ook
ĠE re
ĠR owland
Ġun luck
Ġqu oth
un o
un ch
Ġbo ard
Ġhat ed
Ġhat red
Ġheart ily
Ġch id
Ġoff icer
Ġmay or
Ġmay be
Ġnight gown
Ġcould st
Ġdis dain
Ġle ather
Ġwant on
Ġser ves
ĠG ree
lo ve
Ġru les
Ġnew ly
ac les
Ġdu kes
Ġfind s
Ġbeg g
Ġover whe
Ġsc ratch
ĠTh omas
Be ware
Ġsl ight
Ġra p
Ġra w
Ġra ging
Ġpe ers
Ġpe ev
Ġapp le
Ġrem ove
Ġsleep y
Ġbed s
Ġthank ful
Ġask s
Ġcl own
Ġcl iff
Ġmon sieur
Ġend s
Ġjo int
Ġjo ined
Ġfight s
Ġbel ow
ens ion
ens ive
Ġho llow
Ġwork s
Ġtra in
Ġimp rison
Ġfall ing
Ġche st
Ġpri ck
Ġass ist
Ġpa ir
Ġthousand s
Ġcur s
Ġcur ses
Ġwind ows
Ġstrange ly
Ġprom ises
Ġacc ording
Ġtri al
ĠU rs
Ġcourt ier
Ġcourt eous
Ġco ff
Ġdream ed
Ġdisc ipl
Ġland ed
Ġbreak s
Ġbreat hing
Ġban qu
Ġgrow ing
Ġhang ing
Ġbid s
Ġdef ense
Ġbeat ing
Ġter rif
Ġsk ull
Ġhair s
Tw ill
Ġreven ged
Ġstart ing
Ġpoint s
Ġsur vive
Ġsur render
Ġmaid s
ĠWhere in
Ġgirl s
Ġsatisf y
Ġvis ion
Ġprison ers
Ġappro ve
Ġeas ier
Ġcond uct
Ġcarry ing
Ġpun ished
Ġchallen ged
Ġbig ger
Ġsail s
Ġarri ve
Ġopp ortunity
Ġconst able
ĠJul ius
Ġdire ctly
Ġsoft ly
Ġfortun ate
Ġsuffer ing
Ġext ra
Ġenter prise
Ġes caped
Ġes pecially
cher s
Ġreg ard
Ġcruel ty
Ġquarrel s
Ġob vious
Ġmerc iful
Ġinstru ment
Ex c
Ġhid ing
Ġgrie ve
rat itude
Ġdri ven
Ġdish onor
Ġlam b
Ġange ls
Cass ius
Ġur ge
Ġconqu er
Ġconqu est
Ġhost ess
Ġperfect ly
Ġfier ce
Ġwrest ler
Ġdeterm ine
ĠAlex as
ĠAlex ander
Ġfare s
Ġarrest ed
Ġsal ute
Ġsepar ate
Somet imes
Pl ay
Ġdemand s
Ġimper ial
Ġtreacher y
Ġtreacher ous
Ġsau ce
rate ful
Ġla zy
Ab out
Ġnun cle
Ġearn est
Ġacquaint ance
Ġfaire st
Ġtyran ny
Ġdeg ree
Ġcounc il
Ġeff ort
Ġdiscour se
ĠAlb any
ĠGonz alo
ntiphol us
Ġaband on
Ġslaught ered
Ġinflu ence
ĠEphes us
gripp a
inbr as
ĠLond on
ĠPist ol
Ġpeev ish
A ct
A bs
D ead
D emetrius
D romio
F ly
F ore
G ra
L ysander
M eet
M usic
N urse
P ay
P eter
P ortia
S m
S ad
S aw
T re
T ranio
U nder
a f
a ver
c Ã¨d
e y
e re
f ret
f aced
g n
g le
g gs
g ues
l ers
l asting
m aster
o e
o ll
o es
r ound
r ato
s he
t ha
t led
u able
v ail
w ing
y m
Ġ ign
Ġt ut
Ġt as
Ġt ard
Ġt ents
Ġa st
ou ble
Ġs ed
Ġm ouse
Ġw est
Ġw ond
Ġw olves
in ate
re es
ha st
ha el
Ġb rown
Ġb ud
Ġb uck
is bury
ve ling
Ġf ake
Ġf lo
Ġf ires
Ġd im
Ġl ame
Ġl oose
Ġl aughter
Ġc ook
Ġc ash
Ġc ured
Ġn y
Ġn onsense
Ġh ind
Ġo ak
ar m
ar ius
Ġth in
Ġth rive
Ġp ine
Ġg n
Ġg ames
om y
ed on
ed nes
Ġbe ware
ot ions
st ain
at ient
at tered
Ġme as
Ġin ch
im ble
ce llus
Ġe ggs
ir and
Ġfor ced
ri bly
al ter
Ġli ft
Ġli ken
Ġst ore
Ġst ub
Ġst amp
Ġst aff
ent aur
ĠA fter
ĠA grippa
us ions
Ġwh ilst
ĠT ake
ĠT iber
ĠC icero
ĠC entaur
ter y
Ġkn ot
ru de
Ġsh ine
Ġsh op
Ġsh ock
Ġbut t
Ġsp he
Ġsp le
Ġsp ake
Ġwhe el
ie v
ĠM ight
ĠM ost
Ġam ends
ven ient
Ġmore over
ĠS ard
ul a
ul s
Ġsw ell
ic ult
ic hael
Ġcon ver
Ġcon ceive
Ġcon sequ
Ġcon ference
Ġlet s
Ġany where
el sh
No ble
Ġar gue
ĠL ig
ĠP er
Ġmo ves
Ġmo der
Ġal ike
Ġr ouse
Ġsome where
ig ent
Ġun us
Ġun fortun
Ġhow ever
un is
Ġri p
Ġbet imes
ĠW alter
ĠW elsh
Ġtw ain
Ġdis ord
Ġle eks
So ld
Ġlea p
Ġjust ly
ĠG eno
Ġhea v
ide red
Ġfl ag
ber t
Ġru m
ss om
ac hes
Ġgra ces
Ġcou ch
Ġad vers
ĠN ay
os ity
Ġsweet ly
Ġhapp ily
Ġbeg u
Ġbeg inning
Ġro ar
Ġro ot
Ġro ck
Ġhouse hold
Ġover th
bl er
Ġsc re
Ġper formed
Ġper chance
Ġrem ind
Ġrem edy
Ġswear s
Ġreason able
Ġac ross
Ġart ic
Ġthank ed
Ġrep res
Ġcl am
Ġansw ers
Ġturn ing
Ġbra very
Ġbear ing
St rike
Ġres c
Ġhor ror
Ġmist aken
Ġbeaut eous
ĠWith in
Ġfeel s
the re
Ġact or
Ġfall en
Ġpri ests
ĠLord ship
Ġhum ili
Ġins ul
Ġchar itable
Ġwo lf
ount ain
Ġpass age
Ġem peror
Ġlight s
Ġfore ign
Ġhold ing
Ġacc ess
Ġtri ump
Ġdream t
Ġdream ing
Ġclo set
Ġpleas ing
Ġkiss ing
uc ed
Ġsit s
Ġlaw ful
Ġnear ly
Ġval uable
Ġbreat he
Ġreturn s
Ġbes ide
Ġperson al
Ġsound ly
Ġcountry man
Ġspo il
Ġspo iled
Ġlead ing
Ġcr itic
Ġexp ed
ĠSt and
iv ity
mp h
ĠMac edon
Ġcar ries
Sh ylock
Some one
ĠCh urch
Ġlear ning
Ġlate ly
Ha ppy
Ġsur pr
Ġdep ends
ĠMar cellus
we b
Ġbar ber
Ġbar ren
Ġbar bar
Ġcor re
Ġdrunk ard
Ġdeep ly
Ġunderstand ing
Ġflat te
Ġforgive ness
wh ile
Ġoath s
Ġcontent ed
Ġinv ited
Ġdev ice
Ġdev ise
ĠPom fret
Ġinter rupt
Ġinno c
Ġlust y
Ġsch ol
Ġdiv ision
Ġmir ror
ipp ing
Ġwicked ness
Ġreg ret
Un less
Un cle
Ġpossess ion
Ġund o
Ġmil k
Ġmiss ing
Ġmiss ed
oms day
Ġunp ro
olute ly
Ġrid icul
Ġfra me
Ġflatter ing
ease blo
Ġtrump ets
Ġgrand am
Ġvict orious
Any way
aith ful
Ġreb els
bb ing
Ġnaught y
Ġpet ition
Ġcerem on
Ġmas k
ĠMust ardseed
ĠFort inbras
ob web
Ġstuff ed
Ġresol ution
Ġcontin ue
Ġentertain ment
Ġexper ience
Ġinj ury
Ġsepar ated
Ġmarvel ous
Re ady
Somet hing
Ġobs erv
Ġconj ure
Ġprovo ke
Ġbab es
Ġven ge
Ġcircumst ance
Ġmal ice
Ġperfor ce
Ġperfor man
Ġpoet ry
Ġeng aged
Ġmere ly
ĠEar l
Ġstol en
Ġchoo ses
Ġaccomp lish
ĠQu ince
Ġcorn er
Ġpros per
Ġcontr ary
ien ced
Ġhig her
ĠSal isbury
has ar
Ġbount y
Ġdistract ed
Ġambassad ors
bon ius
Ġmaint ain
ĠBalt hasar
umn ius
Ġappet ite
Ġdiff icult
Ġcab in
Ġconvers ation
Ġeter nal
alb ain
ĠFranc is
ĠVol umnius
Mean while
Ġresponsib ility
Ġinher it
ĠUrs ula
Ġbanqu et
Exc use
Abs olutely
ednes day
irand a
Ġliken ess
Ġstub born
ĠLig arius
ĠGeno a
easeblo ssom
B oy
B anquo
C h
C arry
C ertain
C esario
F ulvia
H ortensio
L e
M erc
N ame
O ctav
O thello
P repare
R atcliffe
S c
a very
b ers
e ople
f ri
g on
g or
g han
g room
h ore
i ate
i able
l ter
m et
n a
n ard
o le
r ot
r ass
r ade
s ame
u ps
w it
y et
y our
Ġ ice
Ġ ves
Ġt ea
Ġt ie
he nd
Ġs ought
Ġm ing
Ġm ill
Ġw ore
Ġw and
Ġw ail
Ġw akes
re g
âĢ ¦
âĢ ĵ
Ġb aw
Ġb ail
is a
is ons
Ġy oke
Ġf if
Ġf its
Ġd ote
Ġd awn
it io
it imate
Ġl aces
Ġc al
Ġc ue
Ġc ens
Ġc ale
Ġto ss
er gy
Ġn et
Ġo x
Ġo men
an cy
en a
Ġth rown
Ġth umb
Ġp il
Ġp ite
Ġp omp
Ġp ipe
Ġg a
ot ha
at or
at ched
Ġha y
Ġin n
Ġin form
Ġin formed
le ance
ay ed
ld om
im b
im ents
Ġe ase
Ġe lo
Ġe ager
ill s
ch o
ri an
Ġas hore
al ent
Ġst y
Ġst ake
Ġst um
Ġst ool
Ġst uck
Ġst eep
Ġst ained
Ġdo omsday
Ġre lease
Ġre vere
ĠA rab
ur vy
ur sed
ĠT oo
ĠT ell
Ġher bs
Ġlo ad
Ġlo gs
Ġlo sing
ĠC ato
ea rest
il es
Ġno bles
ro g
ro ve
Ġsh ield
ge ons
Ġsu stain
au ghan
Ġsp urn
Ġsp ark
Ġsp ee
Ġup b
Ġsay st
ĠM istress
end er
end ing
Ġsee ks
qu es
ĠB iondello
ĠS at
ĠS ly
ĠS ave
Ġv ault
Ġout rage
Th ings
ul ous
ul ation
Ġsw all
are r
Ġab ide
Ġar rant
Ġar rows
ĠL itio
ĠF ool
ĠF leance
Ġpl ants
Ġwhen ever
ĠP ol
ist ed
Ġmad men
Ġsome how
Ġbr an
ĠD anish
ĠD olabella
ĠD orset
ĠD ecius
ĠR ivers
ĠO ne
Ġun ivers
pt ion
Ġex ile
Ġen ra
Ġen vy
Ġen vious
Ġmar ble
Ġhand le
ĠCa wd
ag en
ag ger
ag ues
Ġch ol
Ġnight ing
Ġpro ved
ĠW ednesday
Who se
ĠG erman
Ġwr ought
Ġwr inkled
Ġfo e
Ġfo g
Ġfo es
Ġwhere in
Ġbec ame
Ġother wise
ac ob
Ġgra b
Ġtr ad
Ġfe ign
Ġback ward
os es
os ing
ĠJ ust
ĠJ up
ĠJ uno
Ġhapp ier
Ġpre fer
Ġwit ches
Ġkind s
Ġcomp et
Ġcomp ared
Ġra il
Ġper p
Ġcont ain
Ġcont em
Ġcont ents
Ġbest owed
Ġarm ies
Ġcl oud
Ġneed ed
Ġbra nd
Ġlive ly
Ġbel ief
To day
med e
Ġent ra
Ġent rance
Ġcare s
Ġcons idered
Ġrest ore
ĠV aughan
Ġtra ged
the n
Ġact ed
Ġconf used
Ġconf usion
Ġchan ces
und ay
bt ed
Ġhum ans
Ġins ol
Ġem otions
Ġcra ve
Ġpur sue
Ġdou blet
An other
any mede
Ġbri dge
Ġmarry ing
Ġclo ak
Or lando
Ġdisc over
Ġkiss es
Ġkiss ed
Ġbreak ing
Ġthrough out
Ġwatch ing
Ġfar m
Ġgr at
Ġship w
Ġdisp ose
Ġsn eak
Ġmis chief
Ġbat tles
vent ure
Ġless er
Ġdare s
Ġstop s
Ġmoon light
Ġdef y
Ġexp lo
Ġter ror
mp et
Ġsight s
Ġstri kes
Ġquiet ly
Ġmet al
Ġmet tle
Tw ere
Ġair y
ĠVen us
Ġmark ed
Ġseem ing
Ġfalse ly
Ġrel atives
Ġdro pped
Ġcor on
Ġsuff ic
Ġconfess ed
Ġsuit or
Ġsuit ors
Was n
Ġfav ors
Ġinf inite
Ġmock ing
Ġsense less
Ġwrit ing
Ġclose ly
Ġappear ance
Ġwret ches
Ġreport s
Ġaff ord
Ġkingdom s
Ġgrant ed
Ġself same
Ġdiv ided
Ġtouch ing
Ġfin ish
ĠMal colm
Ġdest ruction
Ġstru gg
Ġreg ards
ĠâĢĥ âĢĥ
Ġneigh bors
Ġblow ing
Ġgro ve
Ġgro ans
Ġocc up
Ġind ign
Ġgrie ving
Ġreal ize
Ġsens ible
Ġer rand
Ġbeast s
Ġsho e
Bel ike
Ġfright en
Ġfright ened
Ġlim bs
Ġpit iful
ĠMess ina
Ġinstant ly
Ġpublic ly
sin ane
Ġresp ond
Ġeffect s
Ġnecess ary
Ġwrest ling
Ġba ld
ĠSe bastian
Ġconcer n
Ġprov ide
Ġprov ided
Ġstro kes
Ġconv in
Ġconv ince
Ġdisgu ised
Ġed ge
Ġed uc
Ġemp ire
Ġunkind ness
Ġmut iny
Ġviol ence
Ġven om
Ġignor ant
ĠSy cor
Ġcircumst ances
Ġcre ep
Ġeld est
Ġhung er
Ġrespons ible
ĠDun sinane
Ġcarri ages
Ġcelebr ate
Ġbother ing
ĠEar th
Ġing ratitude
Ġtot al
Ġpin ch
Luc ius
Ġtar get
Ġfant asy
ĠCor in
ĠBar b
Ġbenef it
Ġfro st
Ġforsw orn
ĠSil vius
Ġoppos ite
Ġsacrif ice
Ġpot ent
Ġrhy me
Ġinterp ret
Ġemplo y
cra ft
look ing
Ġrehe arse
Ġspl it
Ġpron ounced
Ġdischar ge
Ġphys ic
ĠSyrac us
Cal phurnia
Fort une
Ġvers es
Ġdig est
Ġlen g
Ġliqu or
Ġju ice
Ġmurd ers
Ġcorp se
Ġacknow ledge
Mon ster
Ġgid dy
Ġvul gar
Act ually
Ġtard y
Ġny mph
Ġridicul ous
Ġves sel
Ġcale nd
Ġelo qu
Ġspee ches
ĠCawd or
ĠJup iter
ĠSycor ax
A gainst
B ad
B enedick
C ous
C alm
E ver
F etch
H amlet
K ent
L ight
L end
O ld
O ther
R ide
R osal
S ave
S erv
T ie
T arry
T rinculo
U se
W on
W or
b es
b anish
c ar
c ock
c ross
f l
f ace
g Ã¨d
i alt
k et
l a
l ife
m ont
n is
o ot
o ved
o pped
o gue
p it
p ort
r ough
s eth
s cape
w ill
y es
§ on
Ã §on
Ġ âĢĶ
Ġ Yes
Ġt un
Ġt ide
Ġt aunt
he ss
Ġa v
Ġa pe
Ġa unt
ou red
Ġm ast
Ġm ort
Ġw et
Ġw ard
Ġw reat
Ġw ither
Ġw aked
Ġw reck
in ation
in cent
in ola
re land
Ġb ru
Ġb ul
Ġb ounds
ve red
Ġf em
Ġf ountain
Ġd ain
Ġd rows
Ġd uring
Ġd itch
it us
it ate
Ġl ent
Ġc ows
Ġc ease
Ġc udge
Ġto y
er g
er ic
er ving
Ġn ap
Ġn ails
Ġh om
Ġh ie
ĠI reland
Ġo kay
Ġhe el
an ity
an ced
an iel
en volio
Ġth w
Ġth orn
Ġp ace
Ġp atch
Ġg ore
Ġg ame
Ġg ull
Ġg ild
Ġg ait
Ġg ray
ed ro
Ġbe fall
ot hered
at he
at ory
at ures
Ġha ll
Ġha ply
se e
ke ep
ke ys
Ġe un
ill ius
Ġfor ms
Ġwe ase
Ġwe ird
as es
Ġk id
Ġk ick
al ing
Ġli ars
Ġst are
Ġst ray
Ġst ern
Ġdo om
Ġre in
Ġre nd
ĠA len
ĠA cc
ra se
Ġan x
our n
our t
ur ous
Ġde er
ĠT ouch
ĠT unis
Ġse as
Ġlo ses
Ġlo cks
ĠC om
ĠC ur
ĠC obweb
ea v
Ġkn it
Ġall owed
Ġall iance
il ies
Ġman hood
Ġsh ining
ge us
Ġsu bs
ant ial
au l
Ġbut che
Ġsp r
ast ed
Ġsay est
Ġhere in
ĠM iranda
ĠM inola
end ed
Ġam iss
Ġam ount
ven ge
qu is
ĠB ea
ĠS ix
Ġj ester
Ġus ually
Ġwho les
Ġwor ried
Ġcon venient
Ġlet ting
Ġbl iss
Ġbl ushes
el iev
ĠH old
ĠH eaven
ĠH aving
Ġpr anks
em per
em pered
res pect
Ġpl at
ĠP easeblossom
ĠP edro
Ġtheir s
Ġal though
Ġr he
Ġr at
ĠE r
ĠE ast
ig hed
ĠD is
ĠD ane
Ġag reed
ĠO ber
Ġhow ling
Ġri v
Ġen s
Ġbet wixt
um es
ag on
Ġch ur
Ġch ief
Ġoff ers
Ġoff ices
Ġpro ver
Ġpro ves
ĠW ar
Ġdis s
Ġdis lo
ĠG ower
ĠG anymede
Ġcha p
Ġwhere ver
Ġevery body
Ġevery where
ious ly
Your s
Ġeven ing
Ġdes ign
Ġad ores
Ġtr im
Ġdu ck
Ġback s
Ġpart ing
Ġpre gn
Ġever lasting
Ġbeg un
Ġro ses
Ġnoble men
bl ood
Ġsc ene
Ġpray s
ĠTh us
Be at
be it
Ġra gged
Ġper j
Ġper io
Ġper ish
Ġhar der
ert rude
Ġsm ack
Ġsm othered
Ġcont ains
Ġrep ay
Ġrep ose
Ġrep air
Ġcl imb
Ġlie f
Ġend eav
Ġjo kes
lt s
aw s
Ġmer ri
ens es
Ġbre ad
ons h
Ġhast y
St anley
Ġcare less
Ġho le
Ġstran gers
ĠV incent
Ġimp ed
Ġimp ress
Ġimp atience
Ġhonest ly
Ġconf isc
Ġconf irmed
Ġche ated
Ġma jest
Ġwear s
Ġass urance
Ġchar ges
Ġpass es
Ġem otion
Ġpur ple
Ġsend ing
Ġunc les
Ġatt ent
Ġatt empt
Ġacc ident
Ġbu ilt
Ġbu bble
Ġret ire
Ġmusic ian
Ġbri d
Ġco at
Or sino
Ġeat s
Ġdisc o
Ġearth ly
let s
Ġlaw y
Ġsound ed
Ġgr ass
Ġdisp osed
Ġgre w
Ġbit ing
ĠSt rato
Ġtrust ed
Ġreven ue
Ġtem ple
Ġgeneral s
Would st
stand ing
Ġdut ies
Ġlaugh s
Ġmin ister
Ġref uses
Ġbeard s
Ġknock s
Ġsuff ers
Ġdrown ing
Ġcapt ured
Ġrequ ests
Ġfam ilies
Ġbro ad
Ġlow ly
Ġmock s
Ġpurp oses
wh y
Ġpu pp
Ġknave s
Ġmurder ous
to gether
Ġdec or
Ġdec ide
Ġabs ent
Tru st
Ġsum mon
ĠChristian s
Ġhappen ing
Ġtreat ing
ĠAn ne
ĠDid o
Ġpen ny
Ġap ol
Ġpriv ile
See k
Ġstru mpet
Ġsecret s
Ġsecret ly
Ġheir s
Ġglo ves
Ġcourage ous
Ġsteal s
Ġfle e
Ġgrie vous
Ġve ins
Ġta x
Ġstar ve
ĠPar th
ĠDon albain
Ġgreet ing
Ġgreet ings
Ġtrans l
Ġsigh ing
Ġflatter y
Ġer ror
Ġur ged
Ġsho ot
ĠMont agues
Ġconqu ered
Ġfrown s
Ġthreat en
Ġequ ally
Ġpol itic
Ġmagic ian
Ġconcl ude
Ġca uses
Ġsav ages
od o
Ġlun atic
Ġwealth y
Ġsuc ceed
Ġtrem bling
Ġmount ain
Ġneg l
Ġconcer ning
Ġunf old
Ġunf aithful
Ġpict ures
Ġanc est
Ġwitch craft
Ġbride groom
Ġbanish Ã¨d
Ġexper t
Ġow l
Ġow es
Ġwander ing
Ġstomach s
Ġshrew d
Ġduked oms
Pl uck
Ġph rase
ĠBl unt
Ġearl ier
Ġscarce ly
Ġver se
Ġhol id
Ġdefe ated
Ġunb eliev
Ġcompl aints
Ġsau cy
Ġexec uted
Ġcelebr ation
Ġcurt ain
Con f
Honest ly
Ġung rateful
Ġcondem n
Ġcondem ned
aur us
Ġep it
Ġprod ig
Ġfee ble
Ġadvance ment
Ġdistur bed
Cl audio
Ġbraw l
ĠSw eet
Ġundert ake
Ġmasqu er
ĠTurk ish
Ġball s
Ġbank rupt
sc ore
Ġhelm et
Ġvo ices
Ġslee ve
Ġpir ates
Ġdishon ored
ĠBrabant io
Ġsoc iety
Ġann ounce
Ġgn aw
Ġunus ual
Ġrepres ent
Ġsurpr ised
Ġschol ar
Ġceremon ies
nard o
Ġrevere nd
ĠArab ia
Ġunivers al
Ġentra ils
Ġtraged y
ĠBarb ary
Ġcalend ar
Rosal ind
Ġwreat h
Ġdain ty
Ġeun uch
Ġwease l
ĠAlen Ã§on
Ġwholes ome
ĠOber on
Ġpregn ant
ĠVincent io
A w
C om
C har
C ontent
C ommend
D e
E re
F our
F ine
G on
H um
H ap
H usband
L ock
L orenzo
M ess
N ew
P ass
P ret
P erc
P eople
R el
R egan
R ob
T r
V irt
W omen
a h
b ro
b ack
b ol
b by
b ute
c at
c ies
c ule
d in
d st
f ast
g est
g ins
h um
h ib
k ind
l ive
l ause
l ip
m ag
m bl
m ons
n el
n icious
o ison
o ined
p ing
r t
s m
s ha
s ome
t ell
u ries
w ood
w ick
w ife
y n
y ard
z ab
Ġ z
Ġ row
Ġ Whether
Ġt ab
Ġa id
ou der
Ġs ow
Ġs and
Ġs ie
Ġs outh
Ġs aints
Ġm ixed
Ġw a
Ġw i
Ġw es
Ġw ink
Ġw ipe
re bonius
ha ppy
Ġb er
Ġb ay
Ġb ree
Ġb oring
is p
ll able
on na
Ġf ed
Ġf ray
Ġf ix
Ġd ed
Ġd ate
Ġd ise
Ġd iz
Ġd ial
Ġd iest
it tle
it che
Ġl ute
Ġc ro
Ġc aut
Ġc ups
Ġto w
Ġto otha
Ġn ut
Ġn our
Ġn upt
Ġh ose
ĠI mp
Ġo ats
ar ant
ing er
Ġhe y
Ġhe dge
an o
en ix
Ġp ent
Ġp op
Ġp ud
Ġp alm
Ġp ension
Ġg est
Ġg ap
om it
ed ing
Ġbe ams
Ġha p
Ġin ward
Ġin vol
Ġin vest
Ġe gg
Ġwe ed
Ġwe pt
ad ise
Ġnot orious
as hes
ri ck
Ġk itche
Ġli king
Ġst eed
Ġst ale
Ġst ony
ĠA y
ĠA li
ĠA ntipholus
ra in
ra ced
Ġan t
Ġde fect
Ġde af
ĠT ime
ĠT rebonius
Ġse est
Ġse qu
Ġse vent
Ġse ize
Ġse mbl
Ġlo dge
ĠC all
ĠC ont
Ġgo bl
ight y
ru ly
il ess
Ġno bly
Ġno body
Ġman ly
Ġsh ift
Ġsu ic
Wh om
Wh ip
ant ing
ant ime
ant agen
nt y
Ġsp y
Ġat e
ust omed
Ġsha de
ĠM ine
ĠM akes
ĠM oon
ĠM ichael
Ġam orous
qu ess
ĠB ra
ĠS m
ĠS ha
ĠS ay
ĠS us
ĠS unday
Th rice
Th ieves
ul ar
ul ate
Ġsw ay
Ġus es
Ġus ing
are l
ard ol
ic o
Ġab hor
Ġor ig
Ġor nam
Ġbl own
Ġbl ock
Ġbl ank
op hy
Ġar gu
Ġpr im
Ġpr ime
Ġpr ating
ĠL ew
Ġpl enty
Ġwhen ce
ĠP uck
ĠP isa
Ġal together
Ġr ate
Ġr ings
Ġmad onna
Ġbr im
ĠE li
ĠE mp
ĠE geus
ig nty
ĠR ialt
ĠO liver
art s
art ered
Ġex ha
Ġri ot
Ġri val
Ġmar red
ag ious
Ġch in
Ġch ose
Ġpro ven
ĠW ood
Ġdis aster
Ġle an
Ġle vel
Ġle cher
lo se
Ġke en
ber ries
Ġru st
Ġru ff
Ġru mor
Ġru lers
Ġear ned
Ġear ls
ac c
ian a
Ġdes ired
Ġlady ship
Ġcou p
Ġkill s
When ever
Ġtr ash
ĠN ever
Ġfe atures
ĠJ ack
ĠJ acob
Ġpre ced
Ġro ad
Ġsc urvy
iss cross
Be ing
Ġwar ning
Ġkind red
Ġhop ing
Ġsl ut
ond ay
Ġper nicious
Ġapp lause
Ġapp arel
Ġsm iled
Ġsm oke
ud gment
Ġhelp ing
Ġac he
Ġgu ide
Ġgu ests
Ġgu arant
Ġcl othing
Ġneed ful
Ġshow ing
Ġsince re
Ġhor rid
for th
Ġcons um
Ġpat tern
Sir s
Sir rah
Ġimp atient
Ġgl orious
Ġgl ories
Ġconf irm
Ġchan ges
Ġma le
Ġins p
Ġins anity
Ġass ign
Ġass ault
inn y
inn er
Ġwo ke
Ġfull y
Ġcra w
Ġcra ves
Ġcur st
Ġpur g
Ġinde bted
Ġuse less
Ġpres erve
Ġret reat
ĠU nder
ĠU ntil
Ġmusic al
Ġco in
Ġco ll
Ġsec ure
Ġbless ings
Ġpleas ures
Ġdrink s
Ġgrace ful
Ġsupp ly
ĠMy self
Ġinst ance
Ġdan gers
Ġgrow th
Ġdoubt ful
Ġpay ing
Ġgr im
Ġdisp l
Ġang uish
Ġwat ery
Ġlead s
Ġbrave ly
Ġdare d
rel s
ĠIs is
Ġtrust y
Ġshame ful
Ġstri fe
Ġden ying
ĠNor th
Ġdist in
Ġdist ress
Ġquest ions
Ġrel ieve
Ġrel ief
vo c
Ġmin or
Ġcor se
Ġwild er
Ġstra in
Ġdeep er
Ġburn ed
Ġrequ ired
Ġrequ ires
Ġvis age
Her o
Ġsuit ed
Ġappro aches
Ġplan ning
Ġinf irm
Ġcap able
Ġforgive n
Ġwast ing
Ġlad der
cept ion
Ġdev oted
ĠSh ore
Ġfeast s
Ġreport ed
Ġdec ree
Ġopp osed
Ġwitness es
Ġdraw s
Ġprof ound
Ġsign s
Ġdiv ide
Ġinc red
Ġdesp ise
Ġpract ices
Ġmood y
Ġmem or
Ġpar l
str ate
Ġtor ches
Ġglo omy
Ġpossess ions
Ġbrief ly
Ex actly
Ġind ire
Ġind iffe
ĠWh ile
ĠWh ilst
Ġsix th
Ġtreason s
Qu ick
Ġadd ition
Ġwood s
Ġbast ards
Ġcross ed
Ġsovere ignty
Ġwilling ly
ĠSc one
Ġbehold ing
Ġtrans form
Ġtrans formed
Ġliber al
Ġstir ring
Ġschool boy
Ġschool master
Ġcrow s
Ġthreat s
Ġthreat ened
Any thing
Ġsland ered
Ġtroo p
Ġpit ch
Ġreb el
Ġacqu ainted
Ne xt
Ġfill ed
Ġhill s
Meth ought
Ġmount ains
ĠAlex and
ĠSe em
Ġconcer ns
Ġamaz ing
Ġcontin ually
Ġbas eness
Ġexper ienced
Ġposition s
Ġsour ce
Ġinj uries
ĠTur ks
Ġpersu asion
Ġmut t
po llo
Ġentire ly
Ġglass es
Ġpluck ed
Ġcre ate
Ġple ad
Ġhung ry
Ġdestro yed
Ġperil ous
Ġwra p
Ġpred i
Ġchoo seth
Ġprophe cy
Ġtot ally
Ġhunt ing
ĠInd ies
Ġevent s
Ġstret ched
ĠBel mont
Ġfaire r
Ġintent ions
Ġcontr ad
zz led
Ġhig hest
Ġdistur b
Per haps
Ġlog ic
Ġchast e
Ġadmir able
Ġinvent ion
Ġdescri be
Ġcuck oo
Ġcuck old
Ġhaw thorn
Ġinfect ed
Ġassem bled
Ġenfor ced
Ġfurn ish
Ġgent leness
Ġeag les
ĠFer din
Ġaffect ed
Ġintell igence
Ġextrem ity
Ret urn
Ġreck on
Ġrenown Ã¨d
run k
Ġorg an
Ġbrag ging
Ġincre ase
Ġdisgust ing
Ġsanct uary
Mal volio
Ġfu lf
Ġthorough ly
Ġrepe at
Ġunluck y
Ġdisdain ful
ĠGree k
Ġbegg ars
Ġimprison ed
Ġsurvive d
Ġeffort s
Gra cious
Ġconsequ ence
Ġunfortun ate
Ġrum ors
Ġbarbar ous
Ġobserv ance
Ġperforman ce
Ġming le
Ġomen s
Ġsty le
Ġupb raid
ĠSat an
Ġnighting ale
Ġcontem pl
Ġsuffic ient
Ġbul k
Ġfem ale
Ġcows lip
Ġhom age
Ġplat form
Ġriv als
ĠWar wick
Ġdislo yal
Ġperio d
onsh ine
Ġbrid al
Ġprivile ge
Ġepit aph
Hap ly
New s
Perc hance
Virt ue
cule ius
zab eth
Ġwes tern
Ġdiz zy
Ġtootha che
Ġnupt ial
ĠAli ena
Ġsuic ide
antagen et
ardol ph
Ġorig in
ĠLew is
ĠEli zabeth
ĠRialt o
Ġguarant ee
ĠFerdin and
A ss
A gain
A cc
B ack
B assanio
C ry
C ount
C asca
C ambio
D en
D el
D olabella
D ouble
E nobarbus
F ast
F oul
F ellow
H ush
I nto
J ove
K ing
K ather
L ong
M ust
M asters
N ature
O pen
P om
P yramus
P etruchio
T y
T it
T ush
W oo
W oe
Z ounds
a way
a by
a bles
a ques
b in
b et
b urn
c st
c ure
c ip
c up
d ler
e res
e rer
e ys
f ive
f old
f ield
g ent
g rown
h u
i qu
i ward
i omed
l ar
l ong
l Ã©
m aid
o at
o dy
p ence
p hant
p oral
r Ã¨d
r ons
r oop
s k
s on
s ay
s ued
s caped
t ies
v ity
v ico
w ear
y ster
y ton
y tha
z es
Ġ Therefore
Ġ ÂłÂłÂłÂłÂłÂłÂłÂłÂłÂłÂłÂłÂłÂłÂłÂłÂłÂłÂłÂłÂłÂłÂłÂłÂłÂłÂłÂłÂłÂłÂłÂł
Ġt ight
Ġt res
Ġt ick
Ġt arry
Ġt aint
he ld
he tic
ou ra
Ġm ul
Ġm um
Ġm ute
Ġw ave
Ġw age
Ġw ren
Ġw aking
Ġw aving
in ch
in ent
in ore
re th
re cked
ha ve
ha ge
Ġthe at
Ġb red
is m
Ġy on
Ġy ard
on c
on ounce
or th
or ach
Ġf et
Ġf est
Ġf ret
Ġf rant
Ġf aded
Ġd ot
Ġd at
Ġd il
Ġd ren
Ġd ined
Ġd ram
Ġd ivers
Ġl in
Ġl ouder
Ġc ove
Ġc rew
Ġc ush
Ġc ott
Ġto ast
Ġto ler
er ick
es us
Ġn on
Ġn uts
Ġn imble
Ġh ood
Ġh ound
Ġo per
Ġo bl
Ġo yster
ar ily
ar ib
ar rass
Ġhe ave
an ed
Ġth igh
Ġth rew
Ġp ed
Ġp ul
Ġp ounds
Ġp otion
Ġp ushed
Ġg au
Ġg un
Ġg az
Ġbe w
Ġbe est
Ġbe ings
ot ect
at han
at hed
Ġin ha
Ġin ex
Ġin hum
im p
im ony
Ġe w
Ġe cl
Ġe cho
Ġe cst
Ġfor so
ad am
ad el
ad venture
Ġon to
Ġk icked
al se
al ity
al ian
al ance
Ġli k
Ġli ver
Ġli ck
Ġst out
Ġst oop
Ġre ce
Ġre semble
ĠA pollo
ra ved
Ġan ch
Ġan no
out ham
ur ity
ur rey
Ġde ck
Ġwh ist
ĠT ro
ĠT urn
ĠT alk
Ġher o
ĠC ry
ĠC ris
ĠC ambio
ter ing
Ġgo ats
ight ed
ion ed
He len
ru e
il ar
il us
Ġno ses
ive d
ive ly
ro ll
est ion
Ġsh ove
Ġsu cked
Ġcan n
Ġsp urs
Ġlove st
ind ed
Ġshe ath
ear n
ĠM ars
Ġam end
qu ire
qu iet
ĠB ring
ĠB ardolph
ĠS en
ĠS ea
ĠS iward
ĠS outham
ĠS urrey
Ġv ig
Ġout st
Th row
Ġwho ever
Ġthere in
Ġthere of
ic s
ic it
ic ing
ic ation
ic ally
ic ated
ic ial
Ġab uses
Ġab ility
ook ed
Ġfa ced
Ġbl ot
red erick
ĠH im
ate ful
Ġpr ank
ĠL u
ĠL ay
