{
  "version": "1.0",
  "truncation": null,
  "padding": null,
  "added_tokens": [
    {
      "id": 0,
      "content": "<PAD>",
      "single_word": false,
      "lstrip": false,
      "rstrip": false,
      "normalized": false,
      "special": true
    },
    {
      "id": 1,
      "content": "<EOS>",
      "single_word": false,
      "lstrip": false,
      "rstrip": false,
      "normalized": false,
      "special": true
    }
  ],
  "normalizer": null,
  "pre_tokenizer": {
    "type": "ByteLevel",
    "add_prefix_space": false,
    "trim_offsets": true,
    "use_regex": true
  },
  "post_processor": {
    "type": "ByteLevel",
    "add_prefix_space": true,
    "trim_offsets": false,
    "use_regex": true
  },
  "decoder": {
    "type": "ByteLevel",
    "add_prefix_space": true,
    "trim_offsets": true,
    "use_regex": true
  },
  "model": {
    "type": "BPE",
    "dropout": null,
    "unk_token": null,
    "continuing_subword_prefix": null,
    "end_of_word_suffix": null,
    "fuse_unk": false,
    "byte_fallback": false,
    "ignore_merges": false,
    "vocab": {
      "<PAD>": 0,
      "<EOS>": 1,
      "!": 2,
      "\"": 3,
      "#": 4,
      "$": 5,
      "%": 6,
      "&": 7,
      "'": 8,
      "(": 9,
      ")": 10,
      "*": 11,
      "+": 12,
      ",": 13,
      "-": 14,
      ".": 15,
      "/": 16,
      "0": 17,
      "1": 18,
      "2": 19,
      "3": 20,
      "4": 21,
      "5": 22,
      "6": 23,
      "7": 24,
      "8": 25,
      "9": 26,
      ":": 27,
      ";": 28,
      "<": 29,
      "=": 30,
      ">": 31,
      "?": 32,
      "@": 33,
      "A": 34,
      "B": 35,
      "C": 36,
      "D": 37,
      "E": 38,
      "F": 39,
      "G": 40,
      "H": 41,
      "I": 42,
      "J": 43,
      "K": 44,
      "L": 45,
      "M": 46,
      "N": 47,
      "O": 48,
      "P": 49,
      "Q": 50,
      "R": 51,
      "S": 52,
      "T": 53,
      "U": 54,
      "V": 55,
      "W": 56,
      "X": 57,
      "Y": 58,
      "Z": 59,
      "[": 60,
      "\\": 61,
      "]": 62,
      "^": 63,
      "_": 64,
      "`": 65,
      "a": 66,
      "b": 67,
      "c": 68,
      "d": 69,
      "e": 70,
      "f": 71,
      "g": 72,
      "h": 73,
      "i": 74,
      "j": 75,
      "k": 76,
      "l": 77,
      "m": 78,
      "n": 79,
      "o": 80,
      "p": 81,
      "q": 82,
      "r": 83,
      "s": 84,
      "t": 85,
      "u": 86,
      "v": 87,
      "w": 88,
      "x": 89,
      "y": 90,
      "z": 91,
      "{": 92,
      "|": 93,
      "}": 94,
      "~": 95,
      "¡": 96,
      "¢": 97,
      "£": 98,
      "¤": 99,
      "¥": 100,
      "¦": 101,
      "§": 102,
      "¨": 103,
      "©": 104,
      "ª": 105,
      "«": 106,
      "¬": 107,
      "®": 108,
      "¯": 109,
      "°": 110,
      "±": 111,
      "²": 112,
      "³": 113,
      "´": 114,
      "µ": 115,
      "¶": 116,
      "·": 117,
      "¸": 118,
      "¹": 119,
      "º": 120,
      "»": 121,
      "¼": 122,
      "½": 123,
      "¾": 124,
      "¿": 125,
      "À": 126,
      "Á": 127,
      "Â": 128,
      "Ã": 129,
      "Ä": 130,
      "Å": 131,
      "Æ": 132,
      "Ç": 133,
      "È": 134,
      "É": 135,
      "Ê": 136,
      "Ë": 137,
      "Ì": 138,
      "Í": 139,
      "Î": 140,
      "Ï": 141,
      "Ð": 142,
      "Ñ": 143,
      "Ò": 144,
      "Ó": 145,
      "Ô": 146,
      "Õ": 147,
      "Ö": 148,
      "×": 149,
      "Ø": 150,
      "Ù": 151,
      "Ú": 152,
      "Û": 153,
      "Ü": 154,
      "Ý": 155,
      "Þ": 156,
      "ß": 157,
      "à": 158,
      "á": 159,
      "â": 160,
      "ã": 161,
      "ä": 162,
      "å": 163,
      "æ": 164,
      "ç": 165,
      "è": 166,
      "é": 167,
      "ê": 168,
      "ë": 169,
      "ì": 170,
      "í": 171,
      "î": 172,
      "ï": 173,
      "ð": 174,
      "ñ": 175,
      "ò": 176,
      "ó": 177,
      "ô": 178,
      "õ": 179,
      "ö": 180,
      "÷": 181,
      "ø": 182,
      "ù": 183,
      "ú": 184,
      "û": 185,
      "ü": 186,
      "ý": 187,
      "þ": 188,
      "ÿ": 189,
      "Ā": 190,
      "ā": 191,
      "Ă": 192,
      "ă": 193,
      "Ą": 194,
      "ą": 195,
      "Ć": 196,
      "ć": 197,
      "Ĉ": 198,
      "ĉ": 199,
      "Ċ": 200,
      "ċ": 201,
      "Č": 202,
      "č": 203,
      "Ď": 204,
      "ď": 205,
      "Đ": 206,
      "đ": 207,
      "Ē": 208,
      "ē": 209,
      "Ĕ": 210,
      "ĕ": 211,
      "Ė": 212,
      "ė": 213,
      "Ę": 214,
      "ę": 215,
      "Ě": 216,
      "ě": 217,
      "Ĝ": 218,
      "ĝ": 219,
      "Ğ": 220,
      "ğ": 221,
      "Ġ": 222,
      "ġ": 223,
      "Ģ": 224,
      "ģ": 225,
      "Ĥ": 226,
      "ĥ": 227,
      "Ħ": 228,
      "ħ": 229,
      "Ĩ": 230,
      "ĩ": 231,
      "Ī": 232,
      "ī": 233,
      "Ĭ": 234,
      "ĭ": 235,
      "Į": 236,
      "į": 237,
      "İ": 238,
      "ı": 239,
      "Ĳ": 240,
      "ĳ": 241,
      "Ĵ": 242,
      "ĵ": 243,
      "Ķ": 244,
      "ķ": 245,
      "ĸ": 246,
      "Ĺ": 247,
      "ĺ": 248,
      "Ļ": 249,
      "ļ": 250,
      "Ľ": 251,
      "ľ": 252,
      "Ŀ": 253,
      "ŀ": 254,
      "Ł": 255,
      "ł": 256,
      "Ń": 257,
      "Ġt": 258,
      "he": 259,
      "Ġa": 260,
      "ou": 261,
      "Ġs": 262,
      "Ġm": 263,
      "Ġw": 264,
      "in": 265,
      "re": 266,
      "ha": 267,
      "âĢ": 268,
      "Ġthe": 269,
      "nd": 270,
      "Ġb": 271,
      "is": 272,
      "Ġy": 273,
      "ll": 274,
      "Ġyou": 275,
      "on": 276,
      "or": 277,
      "ve": 278,
      "âĢĻ": 279,
      "Ġf": 280,
      "Ġd": 281,
      "it": 282,
      "Ġl": 283,
      "Ġc": 284,
      "Ġto": 285,
      "er": 286,
      "es": 287,
      "Ġn": 288,
      "hat": 289,
      "Ġh": 290,
      "ĠI": 291,
      "Ġo": 292,
      "ar": 293,
      "ing": 294,
      "Ġhe": 295,
      "an": 296,
      "en": 297,
      "Ġth": 298,
      "Ġp": 299,
      "Ġand": 300,
      "Ġg": 301,
      "om": 302,
      "ow": 303,
      "ed": 304,
      "Ġof": 305,
      "Ġbe": 306,
      "ot": 307,
      "st": 308,
      "at": 309,
      "Ġha": 310,
      "Ġmy": 311,
      "Ġme": 312,
      "Ġin": 313,
      "et": 314,
      "le": 315,
      "ay": 316,
      "se": 317,
      "ld": 318,
      "Ġthat": 319,
      "ut": 320,
      "gh": 321,
      "im": 322,
      "Ġis": 323,
      "ce": 324,
      "oo": 325,
      "Ġit": 326,
      "ke": 327,
      "Ġe": 328,
      "ill": 329,
      "ir": 330,
      "Ġfor": 331,
      "Ġyour": 332,
      "Ġwe": 333,
      "Ġu": 334,
      "ith": 335,
      "ad": 336,
      "Ġnot": 337,
      "as": 338,
      "ght": 339,
      "ch": 340,
      "ri": 341,
      "Ġon": 342,
      "Ġk": 343,
      "Ġwith": 344,
      "id": 345,
      "ome": 346,
      "The": 347,
      "Ġhave": 348,
      "ly": 349,
      "her": 350,
      "ver": 351,
      "Ġhim": 352,
      "Ġas": 353,
      "al": 354,
      "Ġli": 355,
      "Ġst": 356,
      "Ġdo": 357,
      "Ġthis": 358,
      "Ġre": 359,
      "ent": 360,
      "ould": 361,
      "ood": 362,
      "ĠA": 363,
      "ra": 364,
      "Ġso": 365,
      "ord": 366,
      "âĢĶ": 367,
      "ore": 368,
      "Ġhis": 369,
      "Ġwill": 370,
      "ell": 371,
      "Ġan": 372,
      "ck": 373,
      "us": 374,
      "our": 375,
      "out": 376,
      "ur": 377,
      "Ġde": 378,
      "Ġwh": 379,
      "ĠT": 380,
      "Ġse": 381,
      "am": 382,
      "Ġher": 383,
      "Ġlo": 384,
      "if": 385,
      "Ġare": 386,
      "Ġthou": 387,
      "ain": 388,
      "ĠC": 389,
      "ter": 390,
      "ess": 391,
      "ea": 392,
      "ake": 393,
      "Ġgo": 394,
      "and": 395,
      "ight": 396,
      "ion": 397,
      "Ġkn": 398,
      "He": 399,
      "What": 400,
      "Ġall": 401,
      "ru": 402,
      "il": 403,
      "Ġne": 404,
      "Ġno": 405,
      "ive": 406,
      "ro": 407,
      "You": 408,
      "han": 409,
      "est": 410,
      "Ġman": 411,
      "Ġsh": 412,
      "ge": 413,
      "Ġsu": 414,
      "Wh": 415,
      "Ġcan": 416,
      "th": 417,
      "Ġwhat": 418,
      "ct": 419,
      "ant": 420,
      "Ġgood": 421,
      "au": 422,
      "Ġbut": 423,
      "But": 424,
      "nt": 425,
      "rom": 426,
      "Ġsp": 427,
      "Ġlove": 428,
      "ind": 429,
      "one": 430,
      "Ġat": 431,
      "Ġlord": 432,
      "ust": 433,
      "Ġup": 434,
      "Ġknow": 435,
      "Ġsha": 436,
      "Ġwas": 437,
      "Ġhear": 438,
      "ast": 439,
      "Ġshe": 440,
      "ry": 441,
      "ble": 442,
      "Ġwhe": 443,
      "Ġlike": 444,
      "ie": 445,
      "ĠAnd": 446,
      "all": 447,
      "Ġsay": 448,
      "And": 449,
      "ear": 450,
      "ink": 451,
      "Ġcom": 452,
      "Ġhere": 453,
      "ous": 454,
      "Ġwould": 455,
      "ĠM": 456,
      "end": 457,
      "Ġam": 458,
      "Ġby": 459,
      "lf": 460,
      "Ġsir": 461,
      "Ġour": 462,
      "Ġif": 463,
      "Ġsee": 464,
      "ven": 465,
      "Ġfrom": 466,
      "pp": 467,
      "Ġthan": 468,
      "ep": 469,
      "qu": 470,
      "Ġthem": 471,
      "ĠB": 472,
      "Ġmore": 473,
      "ĠS": 474,
      "Ġj": 475,
      "Ġv": 476,
      "Ġout": 477,
      "If": 478,
      "Th": 479,
      "ong": 480,
      "Ġnow": 481,
      "ul": 482,
      "Ġsw": 483,
      "Ġus": 484,
      "Ġwho": 485,
      "Ġthey": 486,
      "Go": 487,
      "Ġthere": 488,
      "io": 489,
      "are": 490,
      "row": 491,
      "Ġwor": 492,
      "ers": 493,
      "ard": 494,
      "ic": 495,
      "Ġcon": 496,
      "Ġab": 497,
      "Ġdid": 498,
      "ook": 499,
      "Ġlet": 500,
      "very": 501,
      "Oh": 502,
      "ine": 503,
      "Ġor": 504,
      "Ġthee": 505,
      "self": 506,
      "Ġshall": 507,
      "It": 508,
      "ather": 509,
      "Ġtell": 510,
      "Ġfa": 511,
      "Ġbl": 512,
      "fe": 513,
      "Ġone": 514,
      "Ġthink": 515,
      "Ġany": 516,
      "op": 517,
      "Ġthy": 518,
      "el": 519,
      "Whe": 520,
      "No": 521,
      "red": 522,
      "Ġthen": 523,
      "ĠH": 524,
      "ate": 525,
      "My": 526,
      "Ġwere": 527,
      "Ġsa": 528,
      "ame": 529,
      "Ġwell": 530,
      "Ġar": 531,
      "âĢĿ": 532,
      "Ġpr": 533,
      "ĠL": 534,
      "ĠF": 535,
      "Ġcome": 536,
      "em": 537,
      "res": 538,
      "reat": 539,
      "Ġpl": 540,
      "ng": 541,
      "Ġwhen": 542,
      "ĠP": 543,
      "Ġtheir": 544,
      "Ġmo": 545,
      "ist": 546,
      "Ġpo": 547,
      "ish": 548,
      "Ġal": 549,
      "ak": 550,
      "Ġr": 551,
      "other": 552,
      "Ġshould": 553,
      "Ġtoo": 554,
      "Ġmad": 555,
      "ich": 556,
      "Ġsome": 557,
      "Ġbr": 558,
      "Ġgive": 559,
      "ound": 560,
      "ĠE": 561,
      "ime": 562,
      "fore": 563,
      "Ġmake": 564,
      "ig": 565,
      "Ġabout": 566,
      "ady": 567,
      "ĠD": 568,
      "Why": 569,
      "ĠR": 570,
      "eak": 571,
      "Ġag": 572,
      "ort": 573,
      "We": 574,
      "ĠO": 575,
      "oth": 576,
      "art": 577,
      "way": 578,
      "ice": 579,
      "Ġun": 580,
      "ĠâĢ": 581,
      "pt": 582,
      "ĠTo": 583,
      "Ġqu": 584,
      "Ġhow": 585,
      "un": 586,
      "Ġex": 587,
      "Ġking": 588,
      "ĠâĢĻ": 589,
      "Ġfri": 590,
      "Ġri": 591,
      "ass": 592,
      "Ġbo": 593,
      "ure": 594,
      "ath": 595,
      "Ġdon": 596,
      "ĠâĢľ": 597,
      "ase": 598,
      "Let": 599,
      "Ġhad": 600,
      "Ġen": 601,
      "Ġlook": 602,
      "Ġget": 603,
      "Ġmust": 604,
      "God": 605,
      "ick": 606,
      "Ġhas": 607,
      "Ġhat": 608,
      "Ġtru": 609,
      "ise": 610,
      "Ġmar": 611,
      "Ġfriend": 612,
      "Ġhand": 613,
      "ack": 614,
      "ave": 615,
      "ĠCa": 616,
      "ough": 617,
      "Ġagain": 618,
      "Ġspeak": 619,
      "There": 620,
      "Come": 621,
      ".âĢĶ": 622,
      "esar": 623,
      "That": 624,
      "Ġbet": 625,
      "Ġtime": 626,
      "ol": 627,
      "uch": 628,
      "Ġfather": 629,
      "um": 630,
      "Ġtake": 631,
      "ool": 632,
      "ag": 633,
      "ĠThat": 634,
      "How": 635,
      "Ġheart": 636,
      "ings": 637,
      "ran": 638,
      "ther": 639,
      "hing": 640,
      "Ġch": 641,
      "Ġoff": 642,
      "ness": 643,
      "Âł": 644,
      "ue": 645,
      "Ġnever": 646,
      "Ġmay": 647,
      "Ġnight": 648,
      "orn": 649,
      "Good": 650,
      "ince": 651,
      "Ġpro": 652,
      "urn": 653,
      "ĠW": 654,
      "Ġtw": 655,
      "Ġmuch": 656,
      "Ġcould": 657,
      "ÂłÂł": 658,
      "Ġbeen": 659,
      "aught": 660,
      "ies": 661,
      "ful": 662,
      "lease": 663,
      "Ġsuch": 664,
      "wn": 665,
      "alk": 666,
      "Ġmen": 667,
      "Ġdis": 668,
      "Ġle": 669,
      "Yes": 670,
      "ause": 671,
      "Ġday": 672,
      "Ġaway": 673,
      "Who": 674,
      "This": 675,
      "Where": 676,
      "eet": 677,
      "own": 678,
      "So": 679,
      "Ġaf": 680,
      "Ġlea": 681,
      "ity": 682,
      "Ġwant": 683,
      "Well": 684,
      "Ġey": 685,
      "Ġjust": 686,
      "ĠThe": 687,
      "ĠCaesar": 688,
      "Ġser": 689,
      "Ġwhich": 690,
      "ree": 691,
      "Ġthese": 692,
      "Is": 693,
      "Ġfool": 694,
      "ation": 695,
      "ĠG": 696,
      "Ġhon": 697,
      "lo": 698,
      "tle": 699,
      "entle": 700,
      "Now": 701,
      "Ġint": 702,
      "de": 703,
      "nder": 704,
      "Ġvery": 705,
      "old": 706,
      "ence": 707,
      "pe": 708,
      "Ġke": 709,
      "hed": 710,
      "Ġwr": 711,
      "ves": 712,
      "Do": 713,
      "ĠGod": 714,
      "Ġhath": 715,
      "Ġfo": 716,
      "Here": 717,
      "Ġcha": 718,
      "aster": 719,
      "ile": 720,
      "Ġhea": 721,
      "Ġwhere": 722,
      "Ġbec": 723,
      "Ġupon": 724,
      "ors": 725,
      "Ġgreat": 726,
      "Ġway": 727,
      "Ġevery": 728,
      "ide": 729,
      "thing": 730,
      "Ġother": 731,
      "nton": 732,
      "Ġright": 733,
      "ull": 734,
      "ip": 735,
      "ire": 736,
      "ious": 737,
      "Ġfl": 738,
      "Ġgentle": 739,
      "Your": 740,
      "ber": 741,
      "Ġword": 742,
      "ild": 743,
      "Ġru": 744,
      "Ġyet": 745,
      "Ġear": 746,
      "ss": 747,
      "ither": 748,
      "Ġdaught": 749,
      "Ġnew": 750,
      "ac": 751,
      "Ġeven": 752,
      "Ġmost": 753,
      "Ġcall": 754,
      "ign": 755,
      "Ġtrue": 756,
      "ian": 757,
      "Ġold": 758,
      "Ġbefore": 759,
      "Ġlife": 760,
      "able": 761,
      "Ġmean": 762,
      "age": 763,
      "Ġgra": 764,
      "Ġdes": 765,
      "Ġworld": 766,
      "Ġdeath": 767,
      "Ġmine": 768,
      "ĠAnton": 769,
      "ress": 770,
      "Ġown": 771,
      "Then": 772,
      "ife": 773,
      "Ġwom": 774,
      "ite": 775,
      "ving": 776,
      "Ġdead": 777,
      "Ġim": 778,
      "ouse": 779,
      "Ġlady": 780,
      "Ġcou": 781,
      "Ġkill": 782,
      "Ġbetter": 783,
      "ius": 784,
      "Ġad": 785,
      "ose": 786,
      "She": 787,
      "When": 788,
      "Ġdoes": 789,
      "ty": 790,
      "Ġcomes": 791,
      "oul": 792,
      "ia": 793,
      "man": 794,
      "Ġtr": 795,
      "land": 796,
      "Ġdu": 797,
      "ĠN": 798,
      "Ġfe": 799,
      "Ġback": 800,
      "Ġname": 801,
      "Ġpart": 802,
      "os": 803,
      "Ġfind": 804,
      "Ġblood": 805,
      "Ġeyes": 806,
      "ment": 807,
      "rown": 808,
      "Ġheaven": 809,
      "orrow": 810,
      "Ġleave": 811,
      "ĠJ": 812,
      "ason": 813,
      "Ġsweet": 814,
      "Ġkeep": 815,
      "Ġsle": 816,
      "Ġbrother": 817,
      "Ġgoing": 818,
      "Ġhapp": 819,
      "Ġmade": 820,
      "Ġdown": 821,
      "Ġpre": 822,
      "igh": 823,
      "per": 824,
      "Ġdaughter": 825,
      "ward": 826,
      "Ġlong": 827,
      "ren": 828,
      "by": 829,
      "ved": 830,
      "Ġdone": 831,
      "Ġever": 832,
      "Ġbeg": 833,
      "Ġro": 834,
      "Ġwon": 835,
      "lp": 836,
      "vil": 837,
      "Ġwit": 838,
      "Ġtalk": 839,
      "Ġonly": 840,
      "ark": 841,
      "Ġhouse": 842,
      "Ġtwo": 843,
      "Ġson": 844,
      "ost": 845,
      "Ġover": 846,
      "Ġwife": 847,
      "Ġinto": 848,
      "Ġlit": 849,
      "ces": 850,
      "Ġnoble": 851,
      "bl": 852,
      "Ġsc": 853,
      "Ġput": 854,
      "ally": 855,
      "Ġpray": 856,
      "For": 857,
      "iss": 858,
      "llow": 859,
      "een": 860,
      "Ġmat": 861,
      "ried": 862,
      "ĠTh": 863,
      "ft": 864,
      "Ġmyself": 865,
      "Be": 866,
      "Ã¨": 867,
      "Ġstay": 868,
      "Ġlittle": 869,
      "be": 870,
      "sw": 871,
      "Ġdear": 872,
      "Ġsaid": 873,
      "Ã¨d": 874,
      "Ġyoung": 875,
      "ace": 876,
      "Ġwar": 877,
      "They": 878,
      "Ġkind": 879,
      "Ġmaster": 880,
      "Ġhop": 881,
      "Ġcomp": 882,
      "Ġbecause": 883,
      "Ġnothing": 884,
      "Ġfriends": 885,
      "Ġdie": 886,
      "ger": 887,
      "not": 888,
      "Ġsl": 889,
      "ĠAntony": 890,
      ".âĢĿ": 891,
      "ond": 892,
      "Ġra": 893,
      "Ġpe": 894,
      "Ġmight": 895,
      "Ġper": 896,
      "Ġapp": 897,
      "ance": 898,
      "Ġhead": 899,
      "Ġrem": 900,
      "ap": 901,
      "ower": 902,
      "Ġsleep": 903,
      "band": 904,
      "Ġswear": 905,
      "men": 906,
      "ĠK": 907,
      "Ġunt": 908,
      "Ġplay": 909,
      "Ġhus": 910,
      "Ġthought": 911,
      "omet": 912,
      "Ġcomm": 913,
      "Ġhar": 914,
      "Ġfair": 915,
      "Ġstill": 916,
      "Ġboth": 917,
      "ert": 918,
      "Ġplease": 919,
      "hes": 920,
      "Ġsm": 921,
      "Ġwoman": 922,
      "ew": 923,
      "ab": 924,
      "ier": 925,
      "Ġhope": 926,
      "ud": 927,
      "Ġpoor": 928,
      "Ġreason": 929,
      "Tis": 930,
      "ction": 931,
      "Ġserv": 932,
      "Ġnews": 933,
      "Ġhusband": 934,
      "Ġhelp": 935,
      "In": 936,
      "Ġac": 937,
      "ied": 938,
      "Ġmind": 939,
      "Ġbeing": 940,
      "ĠAs": 941,
      "Ġenough": 942,
      "ff": 943,
      "Ġheard": 944,
      "Ġcont": 945,
      "Ġsoul": 946,
      "Ġel": 947,
      "Ġstand": 948,
      "Ay": 949,
      "irst": 950,
      "Ġart": 951,
      "ears": 952,
      "ÂłÂłÂłÂł": 953,
      "Ġbest": 954,
      "ĠCass": 955,
      "Ġcannot": 956,
      "Ġface": 957,
      "Ġbring": 958,
      "Ġbed": 959,
      "Ġgu": 960,
      "Ġthank": 961,
      "Ġrep": 962,
      "uck": 963,
      "Ġask": 964,
      "Ġmany": 965,
      "get": 966,
      "Ġarm": 967,
      "Ġwrong": 968,
      "Ġcl": 969,
      "Ġchild": 970,
      "Ġmon": 971,
      "Ġneed": 972,
      "Ġelse": 973,
      "atch": 974,
      "Ġlie": 975,
      "Ġansw": 976,
      "Ġend": 977,
      "Ġjo": 978,
      "Ġhonor": 979,
      "less": 980,
      "Ġturn": 981,
      "Ġsomet": 982,
      "Ġhour": 983,
      "Thou": 984,
      "ĠFor": 985,
      "Ġbra": 986,
      "Ġfollow": 987,
      "Give": 988,
      "ee": 989,
      "les": 990,
      "Ġthing": 991,
      "Ġthings": 992,
      "Ġlive": 993,
      "Ġanything": 994,
      "come": 995,
      "lt": 996,
      "ister": 997,
      "Ġsure": 998,
      "aw": 999,
      "day": 1000,
      "Ġmatter": 1001,
      "Don": 1002,
      "Ġwish": 1003,
      "Ġsword": 1004,
      "nce": 1005,
      "Ġmer": 1006,
      "Ġbad": 1007,
      "Ġfight": 1008,
      "Ġshow": 1009,
      "Ġmadam": 1010,
      "ĠEng": 1011,
      "Ġmak": 1012,
      "Ġsince": 1013,
      "Ġhome": 1014,
      "Ġbel": 1015,
      "sand": 1016,
      "Ġyourself": 1017,
      "ds": 1018,
      "onight": 1019,
      "Ġafter": 1020,
      "ĠBut": 1021,
      "Ġtold": 1022,
      "ople": 1023,
      "Are": 1024,
      "dy": 1025,
      "Ġunder": 1026,
      "Ġthough": 1027,
      "ach": 1028,
      "ps": 1029,
      "Ġfell": 1030,
      "ens": 1031,
      "Which": 1032,
      "ory": 1033,
      "Ġbear": 1034,
      "illain": 1035,
      "ĠRome": 1036,
      "Ġbre": 1037,
      "To": 1038,
      "med": 1039,
      "ons": 1040,
      "Ġfear": 1041,
      "Ġhast": 1042,
      "St": 1043,
      "iet": 1044,
      "ret": 1045,
      "Ġcour": 1046,
      "Ġsaw": 1047,
      "Ġboy": 1048,
      "Ġpeople": 1049,
      "Tell": 1050,
      "Ġent": 1051,
      "Ġres": 1052,
      "ieve": 1053,
      "rut": 1054,
      "Ġfirst": 1055,
      "ĠBe": 1056,
      "ock": 1057,
      "Ġcare": 1058,
      "Ġhor": 1059,
      "Look": 1060,
      "Please": 1061,
      "rant": 1062,
      "well": 1063,
      "Ġtonight": 1064,
      "Ġmist": 1065,
      "iness": 1066,
      "Ġho": 1067,
      "oney": 1068,
      "Ġduke": 1069,
      "arry": 1070,
      "aint": 1071,
      "Ġvillain": 1072,
      "Ġsomething": 1073,
      "rutus": 1074,
      "ef": 1075,
      "ought": 1076,
      "Ġanswer": 1077,
      "aut": 1078,
      "ison": 1079,
      "Ġthose": 1080,
      "imes": 1081,
      "Ġstran": 1082,
      "for": 1083,
      "Ġnor": 1084,
      "Ġwhy": 1085,
      "Ġcons": 1086,
      "Ġagainst": 1087,
      "As": 1088,
      "Ġrest": 1089,
      "Not": 1090,
      "li": 1091,
      "ail": 1092,
      "har": 1093,
      "Ġtom": 1094,
      "ened": 1095,
      "irit": 1096,
      "Ġwork": 1097,
      "Ġpat": 1098,
      "Sir": 1099,
      "ged": 1100,
      "Ġdevil": 1101,
      "Ġhands": 1102,
      "ience": 1103,
      "Ġbeaut": 1104,
      "sel": 1105,
      "Ġsister": 1106,
      "Ġspirit": 1107,
      "ĠWith": 1108,
      "Ġonce": 1109,
      "ait": 1110,
      "ever": 1111,
      "ĠV": 1112,
      "Ġdre": 1113,
      "Ġcount": 1114,
      "Ġtra": 1115,
      "Ġmother": 1116,
      "isten": 1117,
      "pect": 1118,
      "Did": 1119,
      "tis": 1120,
      "Ġletter": 1121,
      "ĠHer": 1122,
      "Ġfeel": 1123,
      "By": 1124,
      "der": 1125,
      "Ġrun": 1126,
      "Ġimp": 1127,
      "the": 1128,
      "Ġsent": 1129,
      "Ġthree": 1130,
      "Ġhonest": 1131,
      "ting": 1132,
      "Ġact": 1133,
      "Ġsame": 1134,
      "Ġmoney": 1135,
      "Ġgl": 1136,
      "Ġgone": 1137,
      "Ġconf": 1138,
      "me": 1139,
      "Ġtill": 1140,
      "Ġfall": 1141,
      "Ġche": 1142,
      "Ġpri": 1143,
      "eace": 1144,
      "Nay": 1145,
      "ered": 1146,
      "ient": 1147,
      "Ġchan": 1148,
      "ĠBrutus": 1149,
      "led": 1150,
      "und": 1151,
      "Ġma": 1152,
      "Ġdoth": 1153,
      "Ġmeet": 1154,
      "Ġfort": 1155,
      "Ġhimself": 1156,
      "Ġremem": 1157,
      "leas": 1158,
      "Ġwear": 1159,
      "Ġplace": 1160,
      "ĠOf": 1161,
      "All": 1162,
      "ins": 1163,
      "ition": 1164,
      "Ġwithout": 1165,
      "ĠLord": 1166,
      "bt": 1167,
      "Ġhum": 1168,
      "Ġins": 1169,
      "ĠIn": 1170,
      "eth": 1171,
      "Ġass": 1172,
      "Ġwhile": 1173,
      "Ġchar": 1174,
      "ove": 1175,
      "Ġmorn": 1176,
      "arewell": 1177,
      "Ġwords": 1178,
      "Ġcry": 1179,
      "Ġpra": 1180,
      "Ġgot": 1181,
      "iz": 1182,
      "inn": 1183,
      "Ġpower": 1184,
      "uth": 1185,
      "une": 1186,
      "Ġtre": 1187,
      "Ġwo": 1188,
      "Ġfull": 1189,
      "Ġpa": 1190,
      "Ġthousand": 1191,
      "Ġworth": 1192,
      "Ġrather": 1193,
      "ying": 1194,
      "ount": 1195,
      "Ġpass": 1196,
      "Ġem": 1197,
      "Ġsold": 1198,
      "Ġcra": 1199,
      "Ġcur": 1200,
      "Ġpur": 1201,
      "Ġinde": 1202,
      "Ġlight": 1203,
      "Ġsend": 1204,
      "rance": 1205,
      "Ġgentleman": 1206,
      "Ġuntil": 1207,
      "On": 1208,
      "oice": 1209,
      "ĠWhich": 1210,
      "Ġbus": 1211,
      ",âĢĿ": 1212,
      "ible": 1213,
      "ks": 1214,
      "Ġwind": 1215,
      "Ġdou": 1216,
      "Ġthr": 1217,
      "ows": 1218,
      "Ġuse": 1219,
      "int": 1220,
      "Ġfore": 1221,
      "ense": 1222,
      "usic": 1223,
      "Ġsays": 1224,
      "Ġcoming": 1225,
      "Ġexce": 1226,
      "Ġhappy": 1227,
      "Ġpres": 1228,
      "Ġleft": 1229,
      "gs": 1230,
      "ster": 1231,
      "Therefore": 1232,
      "ertain": 1233,
      "gether": 1234,
      "Ġstrange": 1235,
      "Ġsad": 1236,
      "ĠCl": 1237,
      "Ġunc": 1238,
      "bye": 1239,
      "cy": 1240,
      "ĠHe": 1241,
      "Take": 1242,
      "Ġlast": 1243,
      "Ġhold": 1244,
      "Ġatt": 1245,
      "ĠOr": 1246,
      "ĠCassio": 1247,
      "Ġprom": 1248,
      "Ġwel": 1249,
      "Ġfaith": 1250,
      "Ġacc": 1251,
      "Ġmorning": 1252,
      "An": 1253,
      "ms": 1254,
      "xt": 1255,
      "âĢĥ": 1256,
      "Ġcous": 1257,
      "Ġthus": 1258,
      "Ġrec": 1259,
      "Ġreally": 1260,
      "Ġanother": 1261,
      "Ġseen": 1262,
      "Ġbelieve": 1263,
      "His": 1264,
      "Will": 1265,
      "Ġhigh": 1266,
      "Ġmarried": 1267,
      "Ġindeed": 1268,
      "Ġord": 1269,
      "Ġtri": 1270,
      "Ġbu": 1271,
      "ished": 1272,
      "Ġcrown": 1273,
      "Ġpers": 1274,
      "Ġret": 1275,
      "Ġmistress": 1276,
      "Ġtomorrow": 1277,
      "ĠU": 1278,
      "ute": 1279,
      "ceive": 1280,
      "alt": 1281,
      "Ġservant": 1282,
      "Ġtogether": 1283,
      "any": 1284,
      "Ġalone": 1285,
      "Ġcourt": 1286,
      "ten": 1287,
      "Ġmusic": 1288,
      "Ġcousin": 1289,
      "Ġdidn": 1290,
      "rink": 1291,
      "Ġnat": 1292,
      "Ġhur": 1293,
      "Ġyours": 1294,
      "ield": 1295,
      "Ġmakes": 1296,
      "eal": 1297,
      "ray": 1298,
      "Ġtong": 1299,
      "Ġbri": 1300,
      "vers": 1301,
      "Ġquick": 1302,
      "ched": 1303,
      "ken": 1304,
      "hall": 1305,
      "Ġco": 1306,
      "Ġhell": 1307,
      "Ġeverything": 1308,
      "cl": 1309,
      "sh": 1310,
      "Ġmur": 1311,
      "Ġcame": 1312,
      "ary": 1313,
      "ans": 1314,
      "Ġenem": 1315,
      "Ġdream": 1316,
      "Ġwelcome": 1317,
      "Ġsick": 1318,
      "Ġwise": 1319,
      "Ġnone": 1320,
      "iful": 1321,
      "Ġvir": 1322,
      "Ġmarry": 1323,
      "Ġwalk": 1324,
      "ont": 1325,
      "Ġdru": 1326,
      "Ġclo": 1327,
      "Ġgods": 1328,
      "ĠSir": 1329,
      "Have": 1330,
      "Or": 1331,
      "ior": 1332,
      "ily": 1333,
      "Ġgave": 1334,
      "Ġsec": 1335,
      "esty": 1336,
      "Ġremember": 1337,
      "Ġeat": 1338,
      "Ġsoon": 1339,
      "Ġdoesn": 1340,
      "ĠEngland": 1341,
      "Ġtimes": 1342,
      "Ġset": 1343,
      "ions": 1344,
      "Ġbless": 1345,
      "Ġkilled": 1346,
      "Ġaw": 1347,
      "Ġpleas": 1348,
      "Ġforth": 1349,
      "Ġposs": 1350,
      "Ġdisc": 1351,
      "yal": 1352,
      "Ġsea": 1353,
      "Ġearth": 1354,
      "ect": 1355,
      "ning": 1356,
      "use": 1357,
      "Ġready": 1358,
      "Ġlost": 1359,
      "ĠFrance": 1360,
      "Ġadv": 1361,
      "eech": 1362,
      "no": 1363,
      "!âĢĶ": 1364,
      "up": 1365,
      "ready": 1366,
      "Ġdrink": 1367,
      "With": 1368,
      "ring": 1369,
      "Ġmess": 1370,
      "Ġgri": 1371,
      "ated": 1372,
      "Ġweep": 1373,
      "Ġkiss": 1374,
      "Ġgrace": 1375,
      "selves": 1376,
      "Get": 1377,
      "let": 1378,
      "Ġtak": 1379,
      "amn": 1380,
      "Ġalready": 1381,
      "Ġhorse": 1382,
      "ling": 1383,
      "uc": 1384,
      "oud": 1385,
      "ised": 1386,
      "Ġpeace": 1387,
      "Ġgold": 1388,
      "Ġsupp": 1389,
      "ĠMy": 1390,
      "apt": 1391,
      "Ġsit": 1392,
      "Ġland": 1393,
      "Ġlaw": 1394,
      "Ġtoday": 1395,
      "Ġnear": 1396,
      "ĠRos": 1397,
      "Ġqueen": 1398,
      "Ġbody": 1399,
      "Ġbreak": 1400,
      "Mad": 1401,
      "bs": 1402,
      "ilt": 1403,
      "Ġfellow": 1404,
      "Ġinst": 1405,
      "ĠYou": 1406,
      "rest": 1407,
      "ener": 1408,
      "Ġval": 1409,
      "Farewell": 1410,
      "ween": 1411,
      "ĠĠ": 1412,
      "Ġbreat": 1413,
      "Ġreturn": 1414,
      "Al": 1415,
      "Ġwait": 1416,
      "iece": 1417,
      "Ġtruth": 1418,
      "Ġthrough": 1419,
      "Ġsing": 1420,
      "ash": 1421,
      "Ġsun": 1422,
      "ĠEd": 1423,
      "cious": 1424,
      "Ġi": 1425,
      "Ġwatch": 1426,
      "Ġban": 1427,
      "Ġfar": 1428,
      "Ġforg": 1429,
      "ĠPr": 1430,
      "Ġmeans": 1431,
      "Ġtalking": 1432,
      "av": 1433,
      "fort": 1434,
      "jesty": 1435,
      "Ġdan": 1436,
      "Ġgrow": 1437,
      "Ġhalf": 1438,
      "ides": 1439,
      "Ġwouldn": 1440,
      "Ġbusiness": 1441,
      "Ġdoubt": 1442,
      "Yet": 1443,
      "oor": 1444,
      "Ġbes": 1445,
      "raw": 1446,
      "Ġwhole": 1447,
      "Ġpret": 1448,
      "Ġuncle": 1449,
      "Ġperson": 1450,
      "Ġtongue": 1451,
      "Ġsound": 1452,
      "ery": 1453,
      "Ġpay": 1454,
      "Ġgr": 1455,
      "ats": 1456,
      "Ġhang": 1457,
      "Ġstre": 1458,
      "Ġship": 1459,
      "ardon": 1460,
      "Ġdisp": 1461,
      "ÂłÂłÂłÂłÂłÂłÂłÂł": 1462,
      "ĠRomeo": 1463,
      "Ġfree": 1464,
      "ets": 1465,
      "race": 1466,
      "Ġang": 1467,
      "Ġloved": 1468,
      "Ġchildren": 1469,
      "Ġcountry": 1470,
      "Ġpresent": 1471,
      "Madam": 1472,
      "ix": 1473,
      "Ġtry": 1474,
      "Ġsn": 1475,
      "Ġmis": 1476,
      "ined": 1477,
      "Ġgener": 1478,
      "ates": 1479,
      "ault": 1480,
      "Ġspo": 1481,
      "Ġloves": 1482,
      "Ġknows": 1483,
      "fect": 1484,
      "Ġdeser": 1485,
      "Ġbid": 1486,
      "Ġfur": 1487,
      "Ġfire": 1488,
      "Ġcause": 1489,
      "ars": 1490,
      "Ġgre": 1491,
      "Ġdoing": 1492,
      "Ġlooks": 1493,
      "eed": 1494,
      "Ġbit": 1495,
      "Ġcut": 1496,
      "Ġstr": 1497,
      "Ġvoice": 1498,
      "ca": 1499,
      "ced": 1500,
      "Ġwat": 1501,
      "Ġbat": 1502,
      "Ġborn": 1503,
      "vent": 1504,
      "Ġhither": 1505,
      "Ġop": 1506,
      "ief": 1507,
      "Ġlead": 1508,
      "Ġeye": 1509,
      "lock": 1510,
      "ĠRosal": 1511,
      "Ġless": 1512,
      "Ġaround": 1513,
      "Ġbrave": 1514,
      "Sp": 1515,
      "lish": 1516,
      "Ġdare": 1517,
      "Ġcertain": 1518,
      "Ġpain": 1519,
      "Ġstop": 1520,
      "Ġmoon": 1521,
      "Ġhard": 1522,
      "ches": 1523,
      "dom": 1524,
      "rel": 1525,
      "Ġdost": 1526,
      "raid": 1527,
      "aud": 1528,
      "Ġbeautiful": 1529,
      "Ġlisten": 1530,
      "Ġbeh": 1531,
      "Ġhate": 1532,
      "Ġbetween": 1533,
      "Ġcommand": 1534,
      "ĠPrince": 1535,
      "gy": 1536,
      "Ġcr": 1537,
      "ĠIs": 1538,
      "Ġdef": 1539,
      "ift": 1540,
      "Ġgiven": 1541,
      "Ġexp": 1542,
      "Ġdrun": 1543,
      "Ġlau": 1544,
      "Ġbeat": 1545,
      "ĠSt": 1546,
      "ways": 1547,
      "Ġtrust": 1548,
      "Ġfound": 1549,
      "outh": 1550,
      "Ġshame": 1551,
      "Ġfortune": 1552,
      "Ġstrong": 1553,
      "iv": 1554,
      "oy": 1555,
      "ple": 1556,
      "Ġid": 1557,
      "ĠIf": 1558,
      "eter": 1559,
      "Ġeither": 1560,
      "enty": 1561,
      "Ġangry": 1562,
      "air": 1563,
      "bed": 1564,
      "dd": 1565,
      "ict": 1566,
      "zy": 1567,
      "Ġill": 1568,
      "Ġter": 1569,
      "Ġsk": 1570,
      "Ġsub": 1571,
      "Ġtrou": 1572,
      "Our": 1573,
      "mp": 1574,
      "Ġ'": 1575,
      "ĠWho": 1576,
      "ĠWhen": 1577,
      "Ġsight": 1578,
      "Ġdinn": 1579,
      "Ġstri": 1580,
      "Ġread": 1581,
      "ully": 1582,
      "ĠHero": 1583,
      "Ġden": 1584,
      "Ġlies": 1585,
      "used": 1586,
      "ĠMac": 1587,
      "Ġafraid": 1588,
      "Ġvirt": 1589,
      "Can": 1590,
      "most": 1591,
      "Ġten": 1592,
      "Ġsake": 1593,
      "Ġyears": 1594,
      "llent": 1595,
      "Ġfal": 1596,
      "rice": 1597,
      "Ġwhose": 1598,
      "Ġquiet": 1599,
      "Ġcoun": 1600,
      "ĠJew": 1601,
      "audio": 1602,
      "ial": 1603,
      "hee": 1604,
      "Ġcar": 1605,
      "Ġmet": 1606,
      "oose": 1607,
      "Ġitself": 1608,
      "Ġeach": 1609,
      "ago": 1610,
      "ignior": 1611,
      "ĠNor": 1612,
      "ĠKate": 1613,
      "Ġwonder": 1614,
      "Ġsoldier": 1615,
      "Ca": 1616,
      "ĠWhat": 1617,
      "ĠWe": 1618,
      "head": 1619,
      "Ġfault": 1620,
      "ĠThan": 1621,
      "Ġjud": 1622,
      "Ġring": 1623,
      "enedick": 1624,
      "ĠRosalind": 1625,
      "?âĢĶ": 1626,
      "Sh": 1627,
      "cess": 1628,
      "pon": 1629,
      "so": 1630,
      "Ġsat": 1631,
      "rem": 1632,
      "Ġdist": 1633,
      "Ġpardon": 1634,
      "Ġhair": 1635,
      "Ġalways": 1636,
      "ĠThis": 1637,
      "Ġmonster": 1638,
      "Some": 1639,
      "Tw": 1640,
      "ead": 1641,
      "Ġcle": 1642,
      "ĠIt": 1643,
      "ird": 1644,
      "Ġdel": 1645,
      "Ġdeed": 1646,
      "Ġpoison": 1647,
      "ale": 1648,
      "ues": 1649,
      "ĠQ": 1650,
      "Ġair": 1651,
      "ouch": 1652,
      "rew": 1653,
      "ade": 1654,
      "rible": 1655,
      "ĠCh": 1656,
      "Ġknew": 1657,
      "ross": 1658,
      "Ġseek": 1659,
      "pped": 1660,
      "Ġwomen": 1661,
      "ĠVen": 1662,
      "Ġenemy": 1663,
      "Ġdinner": 1664,
      "Ġlear": 1665,
      "Ġits": 1666,
      "Ġreven": 1667,
      "Ġcomfort": 1668,
      "Ġmark": 1669,
      "Ġbloody": 1670,
      "Ġcompany": 1671,
      "ĠCassius": 1672,
      "Caesar": 1673,
      "ging": 1674,
      "ho": 1675,
      "ted": 1676,
      "uke": 1677,
      "ures": 1678,
      "Ġtears": 1679,
      "ithee": 1680,
      "Ġevil": 1681,
      "alth": 1682,
      "Ġstart": 1683,
      "Ġthoughts": 1684,
      "Ġyouth": 1685,
      "vel": 1686,
      "Ġlate": 1687,
      "Ġluck": 1688,
      "ush": 1689,
      "Ġseem": 1690,
      "Ġbecome": 1691,
      "rench": 1692,
      "ĠEnglish": 1693,
      "ĠClaudio": 1694,
      "Ġfalse": 1695,
      "Ha": 1696,
      "May": 1697,
      "ject": 1698,
      "unt": 1699,
      "Ġage": 1700,
      "Ġsor": 1701,
      "Ġdamn": 1702,
      "Ġthine": 1703,
      "These": 1704,
      "Ġwhom": 1705,
      "Ġprince": 1706,
      "Ġalive": 1707,
      "ounds": 1708,
      "Ġslave": 1709,
      "hard": 1710,
      "Ġbreath": 1711,
      "Ġtem": 1712,
      "ona": 1713,
      "its": 1714,
      "esh": 1715,
      "Ġstory": 1716,
      "ĠMa": 1717,
      "ĠBenedick": 1718,
      "Ġpoint": 1719,
      "Ġexc": 1720,
      "Ġmarri": 1721,
      "Ġtwenty": 1722,
      "Ġhurt": 1723,
      "Ġgeneral": 1724,
      "fully": 1725,
      "ike": 1726,
      "vol": 1727,
      "Ġsur": 1728,
      "rer": 1729,
      "Ġhence": 1730,
      "Ġdep": 1731,
      "Ġnext": 1732,
      "ĠBy": 1733,
      "Ġworse": 1734,
      "Ġquest": 1735,
      "Ġgentlemen": 1736,
      "Ġservice": 1737,
      "Ġjoy": 1738,
      "Ġpromise": 1739,
      "Ġnature": 1740,
      "Ġdanger": 1741,
      "Ġbattle": 1742,
      "!âĢĿ": 1743,
      "Would": 1744,
      "Ġdark": 1745,
      "Ġpity": 1746,
      "oward": 1747,
      "stand": 1748,
      "irl": 1749,
      "Ġrel": 1750,
      "Ġtherefore": 1751,
      "Ġsomeone": 1752,
      "Ġoffend": 1753,
      "ĠWill": 1754,
      "ĠKing": 1755,
      "Ġunto": 1756,
      "Say": 1757,
      "Ġside": 1758,
      "Ġtoward": 1759,
      "Ġweak": 1760,
      "Ġlives": 1761,
      "cked": 1762,
      "ĠMar": 1763,
      "Ġcalled": 1764,
      "ĠAntonio": 1765,
      "Ġpatient": 1766,
      "Ġgrief": 1767,
      "Speak": 1768,
      "Sw": 1769,
      "yb": 1770,
      "isf": 1771,
      "Ġfour": 1772,
      "Ġfoul": 1773,
      "Ġdut": 1774,
      "Ġdro": 1775,
      "Ġwithin": 1776,
      "ĠSo": 1777,
      "ared": 1778,
      "Ġanyone": 1779,
      "Ġprin": 1780,
      "ĠFrench": 1781,
      "Ġmercy": 1782,
      "Ġmessen": 1783,
      "Even": 1784,
      "vy": 1785,
      "Ġisn": 1786,
      "Ġstor": 1787,
      "Ġstate": 1788,
      "Ġsaying": 1789,
      "Ġtook": 1790,
      "Ġtrait": 1791,
      "Ġglad": 1792,
      "undred": 1793,
      "Ġexcellent": 1794,
      "Ġlaugh": 1795,
      "ybalt": 1796,
      "ned": 1797,
      "ph": 1798,
      "pr": 1799,
      "ured": 1800,
      "vo": 1801,
      "Ġmin": 1802,
      "Ġfea": 1803,
      "Ġref": 1804,
      "Ġgoes": 1805,
      "Ġalmost": 1806,
      "Ġmaid": 1807,
      "gypt": 1808,
      "Ġsorry": 1809,
      "Ġmarriage": 1810,
      "bly": 1811,
      "beth": 1812,
      "lou": 1813,
      "uff": 1814,
      "we": 1815,
      "ĠWhere": 1816,
      "Ġwoo": 1817,
      "Ġbar": 1818,
      "lly": 1819,
      "Ġfield": 1820,
      "Ġcor": 1821,
      "Ġgirl": 1822,
      "Ġbeard": 1823,
      "Ġknock": 1824,
      "Ġsuff": 1825,
      "âĢĿ?": 1826,
      "ĠEgypt": 1827,
      "Ġdays": 1828,
      "Ġflesh": 1829,
      "Ġchange": 1830,
      "Ah": 1831,
      "Than": 1832,
      "ne": 1833,
      "over": 1834,
      "Ġwild": 1835,
      "Ġlay": 1836,
      "Ġhundred": 1837,
      "Ġdog": 1838,
      "fection": 1839,
      "ĠRom": 1840,
      "Ġwants": 1841,
      "cester": 1842,
      "bey": 1843,
      "Ġrespect": 1844,
      "Ġconfess": 1845,
      "ealous": 1846,
      "Ġpretty": 1847,
      "Ġwater": 1848,
      "Ġsatisf": 1849,
      "Call": 1850,
      "Shall": 1851,
      "kes": 1852,
      "Ġsil": 1853,
      "ones": 1854,
      "Ġcold": 1855,
      "Ġstra": 1856,
      "urse": 1857,
      "Ġamb": 1858,
      "Ġhonorable": 1859,
      "ize": 1860,
      "Ġorder": 1861,
      "Ġquickly": 1862,
      "ship": 1863,
      "Ġfurther": 1864,
      "Ġdrunk": 1865,
      "loucester": 1866,
      "Listen": 1867,
      "gar": 1868,
      "ze": 1869,
      "Ġfly": 1870,
      "Ġfast": 1871,
      "Ġdrown": 1872,
      "ĠIago": 1873,
      "Ġere": 1874,
      "ram": 1875,
      "ury": 1876,
      "Ġdeep": 1877,
      "Ġlose": 1878,
      "Ġknight": 1879,
      "Ġjealous": 1880,
      "ueen": 1881,
      "Ġfoolish": 1882,
      "Ġimag": 1883,
      "ding": 1884,
      "Ġburn": 1885,
      "Ġcase": 1886,
      "ries": 1887,
      "Ġshalt": 1888,
      "Ġbrought": 1889,
      "Ġprove": 1890,
      "ments": 1891,
      "Ġprep": 1892,
      "Ġroyal": 1893,
      "Ġcharge": 1894,
      "Ġsecond": 1895,
      "ĠEdward": 1896,
      "act": 1897,
      "mit": 1898,
      "Ġmouth": 1899,
      "Ġwis": 1900,
      "llen": 1901,
      "Ġcapt": 1902,
      "Ġrequ": 1903,
      "ents": 1904,
      "Ġvis": 1905,
      "Thy": 1906,
      "elcome": 1907,
      "Ġhearts": 1908,
      "ĠChr": 1909,
      "ĠMajesty": 1910,
      "Ġduty": 1911,
      "Her": 1912,
      "Just": 1913,
      "ek": 1914,
      "gu": 1915,
      "ired": 1916,
      "Ġwed": 1917,
      "Ġlips": 1918,
      "rage": 1919,
      "ives": 1920,
      "Ġshort": 1921,
      "Ġsuit": 1922,
      "Ġknown": 1923,
      "els": 1924,
      "Ġprison": 1925,
      "ĠDes": 1926,
      "ĠDuke": 1927,
      "othing": 1928,
      "Goodbye": 1929,
      "Ġappro": 1930,
      "Ġholy": 1931,
      "Ġpossible": 1932,
      "Ġquestion": 1933,
      "Was": 1934,
      "ec": 1935,
      "ked": 1936,
      "mer": 1937,
      "Ġfam": 1938,
      "Ġeas": 1939,
      "Ġused": 1940,
      "Ġfav": 1941,
      "ĠGloucester": 1942,
      "Ġpatience": 1943,
      "Ġcrazy": 1944,
      "ĠQueen": 1945,
      "iers": 1946,
      "len": 1947,
      "Ġbro": 1948,
      "llo": 1949,
      "Ġfood": 1950,
      "Ġdied": 1951,
      "Ġcond": 1952,
      "Ġcoward": 1953,
      "iffe": 1954,
      "ĠHave": 1955,
      "Ġplan": 1956,
      "Ġears": 1957,
      "Ġdesire": 1958,
      "One": 1959,
      "Alas": 1960,
      "Marry": 1961,
      "gain": 1962,
      "gue": 1963,
      "ker": 1964,
      "Ġwin": 1965,
      "Ġlow": 1966,
      "Ġcru": 1967,
      "Ġhide": 1968,
      "als": 1969,
      "ract": 1970,
      "ctav": 1971,
      "ends": 1972,
      "Ġran": 1973,
      "Ġbond": 1974,
      "Ġgrave": 1975,
      "Ġunderstand": 1976,
      "Ġtrouble": 1977,
      "Ġstorm": 1978,
      "ĠChrist": 1979,
      "Welcome": 1980,
      "aim": 1981,
      "Ġfit": 1982,
      "Ġfun": 1983,
      "atrice": 1984,
      "Ġinf": 1985,
      "Ġblame": 1986,
      "Ġsafe": 1987,
      "ĠLuc": 1988,
      "Ġmock": 1989,
      "Ġpale": 1990,
      "Most": 1991,
      "cc": 1992,
      "cent": 1993,
      "eg": 1994,
      "ns": 1995,
      "Ġsin": 1996,
      "Ġsense": 1997,
      "ines": 1998,
      "Ġcap": 1999,
      "Ġcarry": 2000,
      "ane": 2001,
      "utation": 2002,
      "urch": 2003,
      "ĠChar": 2004,
      "each": 2005,
      "Ġnoise": 2006,
      "Ġflat": 2007,
      "Ġduc": 2008,
      "Ġworthy": 2009,
      "Every": 2010,
      "Ġty": 2011,
      "Ġsong": 2012,
      "Ġwine": 2013,
      "Ġbound": 2014,
      "Ġhaven": 2015,
      "amlet": 2016,
      "ichard": 2017,
      "ĠHis": 2018,
      "Ġfoot": 2019,
      "ignor": 2020,
      "Ġgracious": 2021,
      "Ġpraise": 2022,
      "Ġpurp": 2023,
      "ceived": 2024,
      "upid": 2025,
      "Ġforgive": 2026,
      "Ġrevenge": 2027,
      "Ġwast": 2028,
      "Ġmeant": 2029,
      "alm": 2030,
      "Ġspeech": 2031,
      "ĠSignior": 2032,
      "Ġblack": 2033,
      "icked": 2034,
      "Ġwrite": 2035,
      "osed": 2036,
      "Ġarmy": 2037,
      "Ġmaking": 2038,
      "Ġbeauty": 2039,
      "Ġservants": 2040,
      "Ġbeseech": 2041,
      "gers": 2042,
      "ires": 2043,
      "pl": 2044,
      "wh": 2045,
      "whe": 2046,
      "Ġsim": 2047,
      "ham": 2048,
      "Ġfine": 2049,
      "Ġlad": 2050,
      "Ġoath": 2051,
      "Ġpu": 2052,
      "ott": 2053,
      "cept": 2054,
      "oof": 2055,
      "chief": 2056,
      "Ġknave": 2057,
      "Ġneither": 2058,
      "Ġmann": 2059,
      "Ġlords": 2060,
      "ĠMoor": 2061,
      "Ġdidst": 2062,
      "ĠCap": 2063,
      "Ġwrit": 2064,
      "Ġcontent": 2065,
      "Ġmurder": 2066,
      "Ġclose": 2067,
      "Ġdeny": 2068,
      "ĠYour": 2069,
      "Ġce": 2070,
      "Ġpun": 2071,
      "ato": 2072,
      "Ġinv": 2073,
      "Ġdev": 2074,
      "asters": 2075,
      "Ġthemselves": 2076,
      "ult": 2077,
      "Ġtelling": 2078,
      "Ġplain": 2079,
      "ĠPom": 2080,
      "Ġquar": 2081,
      "Ġserious": 2082,
      "Ġmighty": 2083,
      "Ġhours": 2084,
      "Ġmerry": 2085,
      "ĠBeatrice": 2086,
      "Ġexcept": 2087,
      "Ġbehind": 2088,
      "Ġstraight": 2089,
      "Ġducats": 2090,
      "Pray": 2091,
      "to": 2092,
      "Ġcast": 2093,
      "Ġtown": 2094,
      "ored": 2095,
      "ĠSh": 2096,
      "Ġgetting": 2097,
      "ĠGrace": 2098,
      "Ġappear": 2099,
      "Ġimport": 2100,
      "Ġcheer": 2101,
      "Ġfeast": 2102,
      "At": 2103,
      "bo": 2104,
      "dem": 2105,
      "now": 2106,
      "Ġsorrow": 2107,
      "Ġwret": 2108,
      "ndeed": 2109,
      "Ġyes": 2110,
      "Ġlying": 2111,
      "Ġoften": 2112,
      "ating": 2113,
      "Ġinter": 2114,
      "asure": 2115,
      "ĠShall": 2116,
      "Ġprot": 2117,
      "Ġproud": 2118,
      "Ġeveryone": 2119,
      "Ġreport": 2120,
      "Ġground": 2121,
      "ĠVenice": 2122,
      "ys": 2123,
      "yram": 2124,
      "Ġwilt": 2125,
      "Ġfie": 2126,
      "Ġhu": 2127,
      "Ġhot": 2128,
      "Ġinno": 2129,
      "Ġnote": 2130,
      "Ġliving": 2131,
      "Ġdec": 2132,
      "ĠTybalt": 2133,
      "Ġabs": 2134,
      "Ġalong": 2135,
      "ĠDo": 2136,
      "ĠOctav": 2137,
      "Ġchallen": 2138,
      "Ġdaughters": 2139,
      "Ġheavens": 2140,
      "rence": 2141,
      "form": 2142,
      "thello": 2143,
      "Ġmessenger": 2144,
      "Ġfavor": 2145,
      "Tom": 2146,
      "Tru": 2147,
      "cience": 2148,
      "ib": 2149,
      "joy": 2150,
      "Ġbig": 2151,
      "vere": 2152,
      "ities": 2153,
      "Ġlot": 2154,
      "Ġnice": 2155,
      "etri": 2156,
      "leep": 2157,
      "Ġloss": 2158,
      "Ġsum": 2159,
      "ices": 2160,
      "ately": 2161,
      "Ġsail": 2162,
      "Ġarri": 2163,
      "emetri": 2164,
      "Ġalso": 2165,
      "Ġrich": 2166,
      "Ġaff": 2167,
      "ĠThou": 2168,
      "Ġcommon": 2169,
      "Ġthanks": 2170,
      "Stay": 2171,
      "Ġtaken": 2172,
      "Ġsubject": 2173,
      "ĠMacbeth": 2174,
      "volio": 2175,
      "ĠChristian": 2176,
      "emetrius": 2177,
      "Bring": 2178,
      "Indeed": 2179,
      "cause": 2180,
      "gg": 2181,
      "hip": 2182,
      "oh": 2183,
      "tw": 2184,
      "via": 2185,
      "Ġtend": 2186,
      "erc": 2187,
      "Ġopp": 2188,
      "Ġobey": 2189,
      "Ġforget": 2190,
      "romio": 2191,
      "ĠMark": 2192,
      "Ġconst": 2193,
      "ĠHamlet": 2194,
      "Ġmove": 2195,
      "Ġkingdom": 2196,
      "Ġspeaks": 2197,
      "Ġserve": 2198,
      "ĠJul": 2199,
      "Ġhappen": 2200,
      "Ġlonger": 2201,
      "Ġharm": 2202,
      "Ġletters": 2203,
      "Ġpassion": 2204,
      "Ġforever": 2205,
      "Ġmurde": 2206,
      "Ġopen": 2207,
      "ĠDesdem": 2208,
      "ĠDesdemona": 2209,
      "Ar": 2210,
      "eep": 2211,
      "gment": 2212,
      "ually": 2213,
      "Ġtreat": 2214,
      "Ġwent": 2215,
      "Ġble": 2216,
      "ony": 2217,
      "Ġpast": 2218,
      "Ġgrant": 2219,
      "etch": 2220,
      "Ġdoor": 2221,
      "ĠAn": 2222,
      "inks": 2223,
      "Ġworst": 2224,
      "ĠToby": 2225,
      "Ġlooking": 2226,
      "Ġaffection": 2227,
      "Ġwitness": 2228,
      "Ġwarrant": 2229,
      "Ġcourse": 2230,
      "Ġforest": 2231,
      "Ġattend": 2232,
      "Ġbitter": 2233,
      "Ġtraitor": 2234,
      "Make": 2235,
      "Nothing": 2236,
      "cul": 2237,
      "clock": 2238,
      "iant": 2239,
      "ses": 2240,
      "that": 2241,
      "uous": 2242,
      "Ġtit": 2243,
      "Ġsus": 2244,
      "Ġmid": 2245,
      "hal": 2246,
      "Ġdire": 2247,
      "Ġdraw": 2248,
      "Ġlust": 2249,
      "Ġniece": 2250,
      "Ġhit": 2251,
      "Ġhealth": 2252,
      "owers": 2253,
      "Ġsoft": 2254,
      "Ġself": 2255,
      "arence": 2256,
      "Ġthinking": 2257,
      "Ġexpect": 2258,
      "Ġlooked": 2259,
      "Ġchurch": 2260,
      "Ġoffer": 2261,
      "Ġprof": 2262,
      "Ġcouldn": 2263,
      "Ġheavy": 2264,
      "Ġreputation": 2265,
      "Ġliege": 2266,
      "Ġturned": 2267,
      "Ġfortun": 2268,
      "Ġsuffer": 2269,
      "Pr": 2270,
      "Very": 2271,
      "ges": 2272,
      "ls": 2273,
      "ub": 2274,
      "ysand": 2275,
      "Ġsch": 2276,
      "Ġsign": 2277,
      "Ġmorrow": 2278,
      "rent": 2279,
      "Ġbook": 2280,
      "Ġdiv": 2281,
      "Ġpiece": 2282,
      "Ġinc": 2283,
      "ider": 2284,
      "Ġneck": 2285,
      "fered": 2286,
      "Ġprithee": 2287,
      "Ġgives": 2288,
      "ĠDid": 2289,
      "Ġext": 2290,
      "Ġkings": 2291,
      "Ġchoose": 2292,
      "Ġprop": 2293,
      "Ġfools": 2294,
      "pey": 2295,
      "Ġdesp": 2296,
      "ressed": 2297,
      "Ġsouls": 2298,
      "Ġguard": 2299,
      "Ġconscience": 2300,
      "like": 2301,
      "Ġpract": 2302,
      "Ġsoldiers": 2303,
      "ĠUpon": 2304,
      "Ġlearn": 2305,
      "Ġprinces": 2306,
      "kerchief": 2307,
      "ysander": 2308,
      "Me": 2309,
      "Nor": 2310,
      "den": 2311,
      "king": 2312,
      "Ġtouch": 2313,
      "Ġaction": 2314,
      "Ġmood": 2315,
      "Ġfin": 2316,
      "Ġpen": 2317,
      "atra": 2318,
      "leop": 2319,
      "Ġforb": 2320,
      "ently": 2321,
      "ĠAre": 2322,
      "ural": 2323,
      "ains": 2324,
      "ĠMal": 2325,
      "ĠHow": 2326,
      "ĠHath": 2327,
      "ĠHigh": 2328,
      "bles": 2329,
      "Ġenter": 2330,
      "liver": 2331,
      "âĢĥâĢĥ": 2332,
      "Ġspoke": 2333,
      "Sweet": 2334,
      "Thank": 2335,
      "yramus": 2336,
      "leopatra": 2337,
      "Amen": 2338,
      "cri": 2339,
      "iving": 2340,
      "Ġes": 2341,
      "Ġteach": 2342,
      "Ġap": 2343,
      "Ġbir": 2344,
      "ited": 2345,
      "Ġgall": 2346,
      "Ġhaving": 2347,
      "Ġmem": 2348,
      "ello": 2349,
      "Help": 2350,
      "ros": 2351,
      "resh": 2352,
      "ague": 2353,
      "Ġlegs": 2354,
      "Ġleast": 2355,
      "Ġkept": 2356,
      "Ġroom": 2357,
      "Ġmonth": 2358,
      "Ġpriv": 2359,
      "Ġemb": 2360,
      "ĠClarence": 2361,
      "Ġpleasure": 2362,
      "ashion": 2363,
      "From": 2364,
      "Of": 2365,
      "See": 2366,
      "aid": 2367,
      "cher": 2368,
      "dge": 2369,
      "og": 2370,
      "sed": 2371,
      "Ġtail": 2372,
      "Ġmir": 2373,
      "Ġfan": 2374,
      "Ġdest": 2375,
      "Ġdag": 2376,
      "anio": 2377,
      "enant": 2378,
      "Ġthrow": 2379,
      "Ġpar": 2380,
      "Ġbeha": 2381,
      "str": 2382,
      "lex": 2383,
      "utenant": 2384,
      "Ġisland": 2385,
      "Ġones": 2386,
      "Ġstru": 2387,
      "Thus": 2388,
      "ical": 2389,
      "ĠLady": 2390,
      "ĠFrom": 2391,
      "assanio": 2392,
      "Ġproper": 2393,
      "Ġentreat": 2394,
      "Ġspirits": 2395,
      "Ġinside": 2396,
      "Ġcrying": 2397,
      "Ġpurpose": 2398,
      "Since": 2399,
      "az": 2400,
      "ipp": 2401,
      "mon": 2402,
      "mia": 2403,
      "Ġtor": 2404,
      "Ġahead": 2405,
      "Ġmag": 2406,
      "Ġwid": 2407,
      "Ġwicked": 2408,
      "Ġlion": 2409,
      "Ġreg": 2410,
      "ames": 2411,
      "Ġherself": 2412,
      "ĠCount": 2413,
      "ests": 2414,
      "ĠRichard": 2415,
      "ĠOthello": 2416,
      "Ġbold": 2417,
      "Ġtruly": 2418,
      "ably": 2419,
      "Ġneeds": 2420,
      "Ġhorrible": 2421,
      "Ġcurse": 2422,
      "Ġhurry": 2423,
      "Ġenemies": 2424,
      "Ġsecret": 2425,
      "ÂłÂłÂłÂłÂłÂłÂłÂłÂłÂłÂłÂłÂłÂłÂłÂł": 2426,
      "Ġdangerous": 2427,
      "Ġcruel": 2428,
      "ottom": 2429,
      "Ġquarrel": 2430,
      "Rome": 2431,
      "fter": 2432,
      "ler": 2433,
      "Ġmed": 2434,
      "Ġwake": 2435,
      "Ġbur": 2436,
      "Ġyear": 2437,
      "Ġcreat": 2438,
      "Ġob": 2439,
      "Ġheir": 2440,
      "Ġglo": 2441,
      "ceed": 2442,
      "cks": 2443,
      "Ġwhore": 2444,
      "ĠCome": 2445,
      "Ġthyself": 2446,
      "ĠLet": 2447,
      "aked": 2448,
      "ĠâĢĥ": 2449,
      "Ġhandkerchief": 2450,
      "ations": 2451,
      "Ġwithal": 2452,
      "Ġhaste": 2453,
      "Ġstrike": 2454,
      "Un": 2455,
      "hil": 2456,
      "mber": 2457,
      "mund": 2458,
      "ual": 2459,
      "Ġmasters": 2460,
      "reed": 2461,
      "Ġfashion": 2462,
      "Ġoh": 2463,
      "otion": 2464,
      "ention": 2465,
      "rupt": 2466,
      "iled": 2467,
      "Ġneigh": 2468,
      "Ġcanst": 2469,
      "Ġwhatever": 2470,
      "Though": 2471,
      "Ġblow": 2472,
      "Ġblind": 2473,
      "Ġsave": 2474,
      "ĠDemetrius": 2475,
      "Ġunless": 2476,
      "orses": 2477,
      "Ġcourage": 2478,
      "Ġsleeping": 2479,
      "Ġclaim": 2480,
      "Ġmerc": 2481,
      "ĠHermia": 2482,
      "Ġpossess": 2483,
      "Ġclear": 2484,
      "ĠPompey": 2485,
      "Tomorrow": 2486,
      "Ġbleed": 2487,
      "Hold": 2488,
      "Lea": 2489,
      "Never": 2490,
      "but": 2491,
      "cer": 2492,
      "ny": 2493,
      "Ġfresh": 2494,
      "Ġdiffe": 2495,
      "Ġhorses": 2496,
      "Ġgro": 2497,
      "Ġgift": 2498,
      "Ġund": 2499,
      "nto": 2500,
      "astings": 2501,
      "Think": 2502,
      "ĠPyramus": 2503,
      "ĠDromio": 2504,
      "rans": 2505,
      "Ġleg": 2506,
      "Ġsons": 2507,
      "Ġarms": 2508,
      "Ġhighness": 2509,
      "Ġbuy": 2510,
      "Ġbrief": 2511,
      "Ġinstru": 2512,
      "Ġpains": 2513,
      "Ġcounsel": 2514,
      "Ġwedding": 2515,
      "gainst": 2516,
      "Ġinnocent": 2517,
      "Romeo": 2518,
      "Ex": 2519,
      "Peace": 2520,
      "Yea": 2521,
      "eel": 2522,
      "gin": 2523,
      "host": 2524,
      "ĠNo": 2525,
      "Ġmom": 2526,
      "Ġmil": 2527,
      "Ġmiss": 2528,
      "ork": 2529,
      "ites": 2530,
      "Ġocc": 2531,
      "Ġghost": 2532,
      "omp": 2533,
      "oms": 2534,
      "ote": 2535,
      "Ġind": 2536,
      "right": 2537,
      "ided": 2538,
      "Ġsteal": 2539,
      "Ġred": 2540,
      "ĠAll": 2541,
      "thy": 2542,
      "ieu": 2543,
      "ards": 2544,
      "ĠLe": 2545,
      "ortal": 2546,
      "ĠOur": 2547,
      "Ġunp": 2548,
      "Ġqual": 2549,
      "olute": 2550,
      "ument": 2551,
      "ages": 2552,
      "Ġforgot": 2553,
      "Ġexcuse": 2554,
      "body": 2555,
      "ohn": 2556,
      "ĠJuliet": 2557,
      "ollow": 2558,
      "pher": 2559,
      "sue": 2560,
      "ĠWh": 2561,
      "Ġsix": 2562,
      "ining": 2563,
      "rey": 2564,
      "Ġyield": 2565,
      "Ġfle": 2566,
      "Ġfarewell": 2567,
      "Ġfetch": 2568,
      "Ġcol": 2569,
      "Ġcatch": 2570,
      "Ġhid": 2571,
      "etru": 2572,
      "ley": 2573,
      "asca": 2574,
      "chio": 2575,
      "Ġasleep": 2576,
      "Ġdeliver": 2577,
      "Ġloving": 2578,
      "ĠCon": 2579,
      "Ġshut": 2580,
      "antage": 2581,
      "Ġshake": 2582,
      "ĠBassanio": 2583,
      "ngth": 2584,
      "ĠRo": 2585,
      "Ġunk": 2586,
      "Ġchamber": 2587,
      "Ġearly": 2588,
      "bled": 2589,
      "Ġmajesty": 2590,
      "Ġtreason": 2591,
      "Ġgrie": 2592,
      "Ġvaliant": 2593,
      "Ġstrength": 2594,
      "Ġsatisfied": 2595,
      "Ġtyrant": 2596,
      "Ġmoment": 2597,
      "etruchio": 2598,
      "Qu": 2599,
      "lain": 2600,
      "rat": 2601,
      "set": 2602,
      "ude": 2603,
      "Ġve": 2604,
      "Ġta": 2605,
      "Ġable": 2606,
      "Ġfought": 2607,
      "Ġdri": 2608,
      "Ġdish": 2609,
      "Ġcity": 2610,
      "ingham": 2611,
      "Ġgar": 2612,
      "Ġsto": 2613,
      "entio": 2614,
      "Ġlovers": 2615,
      "ĠCan": 2616,
      "ander": 2617,
      "Ġshad": 2618,
      "Ġshar": 2619,
      "ĠMaster": 2620,
      "Ġseems": 2621,
      "Ġfact": 2622,
      "ĠLysander": 2623,
      "ĠPho": 2624,
      "ume": 2625,
      "Ġdisg": 2626,
      "Ġjustice": 2627,
      "Ġadd": 2628,
      "Ġadmit": 2629,
      "Ġbeggar": 2630,
      "Ġscorn": 2631,
      "Ġmatch": 2632,
      "Ġfighting": 2633,
      "dden": 2634,
      "Ġjudge": 2635,
      "Leave": 2636,
      "eath": 2637,
      "oly": 2638,
      "ror": 2639,
      "ront": 2640,
      "Ġwood": 2641,
      "Ġwound": 2642,
      "Ġbast": 2643,
      "Ġbones": 2644,
      "Ġdying": 2645,
      "Ġlam": 2646,
      "Ġlack": 2647,
      "Ġlab": 2648,
      "Ġcross": 2649,
      "esides": 2650,
      "arch": 2651,
      "ang": 2652,
      "Ġele": 2653,
      "Ġstar": 2654,
      "Ġreal": 2655,
      "Ġsovere": 2656,
      "Ġwilling": 2657,
      "eaven": 2658,
      "Ġgod": 2659,
      "Ġlovely": 2660,
      "Ġshepher": 2661,
      "ĠSc": 2662,
      "ĠPar": 2663,
      "ĠDon": 2664,
      "Ġrid": 2665,
      "Ġenjoy": 2666,
      "umb": 2667,
      "Ġcalls": 2668,
      "Ġprayers": 2669,
      "Ġsmall": 2670,
      "Ġarmor": 2671,
      "Stand": 2672,
      "Ġconsider": 2673,
      "Ġtomb": 2674,
      "Ġgreet": 2675,
      "Ġbehold": 2676,
      "Ġwonderful": 2677,
      "Ġjudgment": 2678,
      "Ġdrop": 2679,
      "Ġwisdom": 2680,
      "Ġcaptain": 2681,
      "where": 2682,
      "ĠMalvolio": 2683,
      "ĠHighness": 2684,
      "Am": 2685,
      "Dear": 2686,
      "br": 2687,
      "dle": 2688,
      "hile": 2689,
      "mond": 2690,
      "Ġ(": 2691,
      "Ġest": 2692,
      "Ġtent": 2693,
      "Ġtale": 2694,
      "Ġtrans": 2695,
      "heart": 2696,
      "Ġsen": 2697,
      "Ġsigh": 2698,
      "Ġsens": 2699,
      "Ġwall": 2700,
      "onato": 2701,
      "Ġfra": 2702,
      "irm": 2703,
      "Ġforward": 2704,
      "Ġliber": 2705,
      "Ġstir": 2706,
      "ĠAl": 2707,
      "Ġange": 2708,
      "Ġlover": 2709,
      "Ġloyal": 2710,
      "ĠCleopatra": 2711,
      "rum": 2712,
      "ants": 2713,
      "Ġvile": 2714,
      "Ġworry": 2715,
      "Ġthinks": 2716,
      "ĠHastings": 2717,
      "ichmond": 2718,
      "Ġways": 2719,
      "Ġothers": 2720,
      "ĠJohn": 2721,
      "Ġwars": 2722,
      "Ġcommit": 2723,
      "Ġstands": 2724,
      "Ġguess": 2725,
      "Ġlieutenant": 2726,
      "uthor": 2727,
      "Ġwaiting": 2728,
      "Ġbanished": 2729,
      "Ġpresently": 2730,
      "Ġdeserve": 2731,
      "Ġvirtuous": 2732,
      "ĠRoman": 2733,
      "actly": 2734,
      "Ġflatter": 2735,
      "Ġfortunes": 2736,
      "Ġschool": 2737,
      "Cass": 2738,
      "Fare": 2739,
      "Gentle": 2740,
      "che": 2741,
      "cing": 2742,
      "more": 2743,
      "mian": 2744,
      "pic": 2745,
      "ua": 2746,
      "zo": 2747,
      "Ġer": 2748,
      "inion": 2749,
      "ises": 2750,
      "Ġbeast": 2751,
      "Ġforce": 2752,
      "Ġur": 2753,
      "Ġsole": 2754,
      "ellow": 2755,
      "ease": 2756,
      "Ġsho": 2757,
      "Ġshout": 2758,
      "Ġsudden": 2759,
      "ĠMont": 2760,
      "ppy": 2761,
      "Ġconqu": 2762,
      "elve": 2763,
      "Ġround": 2764,
      "Ġenc": 2765,
      "Ġtrump": 2766,
      "Ġleaving": 2767,
      "Ġintend": 2768,
      "aces": 2769,
      "Ġgrand": 2770,
      "Ġfeed": 2771,
      "Ġhappened": 2772,
      "blic": 2773,
      "Ġscar": 2774,
      "Ġrage": 2775,
      "Ġswords": 2776,
      "medi": 2777,
      "Ġbright": 2778,
      "Ġawake": 2779,
      "Ġadvice": 2780,
      "Ġvisit": 2781,
      "Ġladies": 2782,
      "Ġshepherd": 2783,
      "Away": 2784,
      "Bel": 2785,
      "Know": 2786,
      "eous": 2787,
      "hold": 2788,
      "light": 2789,
      "night": 2790,
      "nzo": 2791,
      "under": 2792,
      "yed": 2793,
      "oun": 2794,
      "Ġfing": 2795,
      "Ġfive": 2796,
      "Ġfrown": 2797,
      "Ġcrow": 2798,
      "Ġthreat": 2799,
      "Ġthird": 2800,
      "owed": 2801,
      "Ġequ": 2802,
      "asion": 2803,
      "orenzo": 2804,
      "usion": 2805,
      "ĠTill": 2806,
      "iff": 2807,
      "Ġgover": 2808,
      "aste": 2809,
      "Ġjew": 2810,
      "Ġvict": 2811,
      "icul": 2812,
      "feit": 2813,
      "ĠRichmond": 2814,
      "ortia": 2815,
      "Ġfright": 2816,
      "Ġoffice": 2817,
      "Ġoffense": 2818,
      "ission": 2819,
      "Ġreasons": 2820,
      "uckingham": 2821,
      "Ġasked": 2822,
      "Ġjoin": 2823,
      "formed": 2824,
      "Ġhumor": 2825,
      "Ġpaper": 2826,
      "Ġpromised": 2827,
      "Ġfaithful": 2828,
      "Any": 2829,
      "Ġdefend": 2830,
      "Ġdamned": 2831,
      "Ġoffended": 2832,
      "Ġpunish": 2833,
      "Ġchallenge": 2834,
      "Ġtender": 2835,
      "Besides": 2836,
      "Follow": 2837,
      "cle": 2838,
      "ixt": 2839,
      "lan": 2840,
      "lot": 2841,
      "Ġauthor": 2842,
      "Ġsland": 2843,
      "Ġwounds": 2844,
      "Ġbird": 2845,
      "Ġfat": 2846,
      "Ġfront": 2847,
      "Ġlim": 2848,
      "Ġcand": 2849,
      "anqu": 2850,
      "omes": 2851,
      "sem": 2852,
      "Ġweap": 2853,
      "ĠAthe": 2854,
      "Ġanger": 2855,
      "Ġdeal": 2856,
      "Ġaren": 2857,
      "ĠCasca": 2858,
      "Ġnose": 2859,
      "Ġgoodbye": 2860,
      "Ġsport": 2861,
      "Ġswore": 2862,
      "ĠPetruchio": 2863,
      "Ġmod": 2864,
      "Ġpol": 2865,
      "akes": 2866,
      "Ġago": 2867,
      "Ġbos": 2868,
      "ĠWas": 2869,
      "Ġtwelve": 2870,
      "Isn": 2871,
      "Dost": 2872,
      "Ġimmedi": 2873,
      "ĠNap": 2874,
      "ĠNurse": 2875,
      "Ġclot": 2876,
      "Ġempt": 2877,
      "Only": 2878,
      "ĠUn": 2879,
      "Ġvirtue": 2880,
      "Ġdepart": 2881,
      "Ġimagin": 2882,
      "Ġfiend": 2883,
      "Ġforbid": 2884,
      "Ġmagic": 2885,
      "Ġsharp": 2886,
      "Hello": 2887,
      "Poor": 2888,
      "Upon": 2889,
      "bor": 2890,
      "ught": 2891,
      "ĠY": 2892,
      "ĠThere": 2893,
      "Ġtree": 2894,
      "orat": 2895,
      "Ġloud": 2896,
      "Ġcir": 2897,
      "Ġcried": 2898,
      "Ġhost": 2899,
      "Ġpull": 2900,
      "Ġgown": 2901,
      "Ġgiving": 2902,
      "Ġbell": 2903,
      "Ġlived": 2904,
      "Ġstupid": 2905,
      "uses": 2906,
      "ĠTit": 2907,
      "Ġwasn": 2908,
      "ĠBuckingham": 2909,
      "Those": 2910,
      "Ġconcl": 2911,
      "Ġsaf": 2912,
      "ista": 2913,
      "Ġpos": 2914,
      "ĠEm": 2915,
      "igo": 2916,
      "ĠOn": 2917,
      "Ġbod": 2918,
      "Ġbetray": 2919,
      "ranio": 2920,
      "ĠThey": 2921,
      "Ġtroo": 2922,
      "lando": 2923,
      "Ġfew": 2924,
      "Ġbegin": 2925,
      "Ġkindness": 2926,
      "Ġrain": 2927,
      "Ġheads": 2928,
      "ĠKather": 2929,
      "Ġsmile": 2930,
      "Ġaccept": 2931,
      "ainted": 2932,
      "derigo": 2933,
      "Ġchance": 2934,
      "Ġwoe": 2935,
      "Ġpaid": 2936,
      "ĠHelen": 2937,
      "Ġvirgin": 2938,
      "Ġawhile": 2939,
      "aptista": 2940,
      "atesby": 2941,
      "Ġterrible": 2942,
      "Ġminute": 2943,
      "ĠRomans": 2944,
      "Ġsimple": 2945,
      "Ġtitle": 2946,
      "Ġwidow": 2947,
      "rumio": 2948,
      "Ġempty": 2949,
      "Anton": 2950,
      "Damn": 2951,
      "Has": 2952,
      "Hark": 2953,
      "aith": 2954,
      "app": 2955,
      "eks": 2956,
      "lu": 2957,
      "hel": 2958,
      "onor": 2959,
      "Ġfig": 2960,
      "Ġdull": 2961,
      "Ġlan": 2962,
      "Ġlat": 2963,
      "Ġcalm": 2964,
      "Ġobed": 2965,
      "Ġowe": 2966,
      "Ġpit": 2967,
      "Ġoft": 2968,
      "idence": 2969,
      "Their": 2970,
      "ala": 2971,
      "Ġstock": 2972,
      "Ġdoors": 2973,
      "Ġreb": 2974,
      "ĠAd": 2975,
      "rac": 2976,
      "Ġwhite": 2977,
      "Hear": 2978,
      "ility": 2979,
      "ilty": 2980,
      "ieur": 2981,
      "ĠMess": 2982,
      "Ġourselves": 2983,
      "icer": 2984,
      "Ġagree": 2985,
      "ortens": 2986,
      "ptain": 2987,
      "ĠCaptain": 2988,
      "Ġspeaking": 2989,
      "ĠWould": 2990,
      "Ġtwice": 2991,
      "ianca": 2992,
      "Ġprecious": 2993,
      "Ġperfect": 2994,
      "Ġsmil": 2995,
      "Ġacqu": 2996,
      "Ġguy": 2997,
      "Ġendure": 2998,
      "Stop": 2999,
      "Ġdread": 3000,
      "ledge": 3001,
      "Ġhuman": 3002,
      "overed": 3003,
      "Ġrecog": 3004,
      "Ġinstant": 3005,
      "Ġopinion": 3006,
      "Ġrequest": 3007,
      "egan": 3008,
      "ĠCharmian": 3009,
      "Ġpublic": 3010,
      "Ġmanners": 3011,
      "Ġimportant": 3012,
      "Ġbirth": 3013,
      "ĠLeonato": 3014,
      "ĠPhoe": 3015,
      "ĠNaples": 3016,
      "oratio": 3017,
      "ortensio": 3018,
      "Ġrecogn": 3019,
      "Keep": 3020,
      "Lord": 3021,
      "More": 3022,
      "Master": 3023,
      "Out": 3024,
      "bb": 3025,
      "bar": 3026,
      "par": 3027,
      "sin": 3028,
      "wor": 3029,
      "Ġtou": 3030,
      "hered": 3031,
      "Ġdra": 3032,
      "Ġca": 3033,
      "Ġnaught": 3034,
      "ench": 3035,
      "Ġpet": 3036,
      "Ġgate": 3037,
      "Ġoffered": 3038,
      "irt": 3039,
      "Ġstood": 3040,
      "urs": 3041,
      "Ġdeare": 3042,
      "Hey": 3043,
      "ĠBaptista": 3044,
      "elia": 3045,
      "Ġsav": 3046,
      "Ġproof": 3047,
      "Ġrough": 3048,
      "Were": 3049,
      "Ġquite": 3050,
      "Ġfriendly": 3051,
      "Ġgreatness": 3052,
      "ians": 3053,
      "Ġkeeps": 3054,
      "Ġwits": 3055,
      "Because": 3056,
      "Ġwarm": 3057,
      "Ġjob": 3058,
      "Ġresp": 3059,
      "Ġmessage": 3060,
      "Ġtaking": 3061,
      "Ġsupper": 3062,
      "Ġvalor": 3063,
      "Ġgrows": 3064,
      "Ġidea": 3065,
      "Ġcounter": 3066,
      "Ġdrowned": 3067,
      "Ġknights": 3068,
      "Ġbroken": 3069,
      "Ġcerem": 3070,
      "Ġarrived": 3071,
      "Ġsovereign": 3072,
      "anquo": 3073,
      "Ad": 3074,
      "First": 3075,
      "Heaven": 3076,
      "Ne": 3077,
      "gare": 3078,
      "mn": 3079,
      "mand": 3080,
      "od": 3081,
      "Ġavo": 3082,
      "Ġmas": 3083,
      "inite": 3084,
      "Ġfeet": 3085,
      "Ġfier": 3086,
      "Ġlun": 3087,
      "Ġtop": 3088,
      "Ġnine": 3089,
      "ots": 3090,
      "Ġwealth": 3091,
      "asc": 3092,
      "riar": 3093,
      "Ġstars": 3094,
      "Ġreward": 3095,
      "rand": 3096,
      "Ġdebt": 3097,
      "Ġseven": 3098,
      "amp": 3099,
      "amed": 3100,
      "Ġspeed": 3101,
      "ĠMay": 3102,
      "ĠMust": 3103,
      "Ġvio": 3104,
      "ĠLike": 3105,
      "ump": 3106,
      "Ġserved": 3107,
      "Does": 3108,
      "Ġchain": 3109,
      "Ġflower": 3110,
      "Ġbrothers": 3111,
      "Ġhappiness": 3112,
      "Ġguilty": 3113,
      "Ġdeserves": 3114,
      "Should": 3115,
      "rers": 3116,
      "Ġprivate": 3117,
      "Ġcolor": 3118,
      "Ġimmediately": 3119,
      "Ġclothes": 3120,
      "Had": 3121,
      "Put": 3122,
      "ffect": 3123,
      "oss": 3124,
      "rin": 3125,
      "ypr": 3126,
      "Ġsort": 3127,
      "hamed": 3128,
      "Ġfill": 3129,
      "Ġdies": 3130,
      "Ġhill": 3131,
      "Ġeffect": 3132,
      "Ġashamed": 3133,
      "rah": 3134,
      "Ġanim": 3135,
      "ĠCypr": 3136,
      "Ġnecess": 3137,
      "Ġsuc": 3138,
      "though": 3139,
      "Ġspell": 3140,
      "Ġwhether": 3141,
      "ĠBianca": 3142,
      "ĠShe": 3143,
      "ĠSaint": 3144,
      "Ġarg": 3145,
      "ĠFort": 3146,
      "istress": 3147,
      "Ġrise": 3148,
      "ĠEx": 3149,
      "aughter": 3150,
      "ĠGrumio": 3151,
      "Ġparts": 3152,
      "Ġslain": 3153,
      "Ġfollowed": 3154,
      "Ġshows": 3155,
      "Didn": 3156,
      "Ġtrem": 3157,
      "Ġburied": 3158,
      "Ġtakes": 3159,
      "Ġtrying": 3160,
      "Ġdeserved": 3161,
      "Ġcertainly": 3162,
      "eterm": 3163,
      "Two": 3164,
      "Ġmarket": 3165,
      "ĠLucentio": 3166,
      "culo": 3167,
      "strous": 3168,
      "Ġstruck": 3169,
      "ĠRoderigo": 3170,
      "ĠParis": 3171,
      "Ġgovern": 3172,
      "Ġbosom": 3173,
      "ĠYork": 3174,
      "ĠHelena": 3175,
      "Ġrecognize": 3176,
      "rinculo": 3177,
      "ĠCyprus": 3178,
      "Meth": 3179,
      "Rem": 3180,
      "Wait": 3181,
      "ci": 3182,
      "com": 3183,
      "law": 3184,
      "ob": 3185,
      "oke": 3186,
      "wise": 3187,
      "ĠOh": 3188,
      "ĠWhy": 3189,
      "Ġtaste": 3190,
      "Ġmour": 3191,
      "Ġmount": 3192,
      "Ġwrest": 3193,
      "iny": 3194,
      "Ġba": 3195,
      "Ġye": 3196,
      "Ġdeterm": 3197,
      "Ġcat": 3198,
      "Ġthro": 3199,
      "ators": 3200,
      "irty": 3201,
      "Ġstab": 3202,
      "Ġstuff": 3203,
      "ĠAlex": 3204,
      "ĠCatesby": 3205,
      "Ġneg": 3206,
      "hant": 3207,
      "aunce": 3208,
      "ĠSe": 3209,
      "rows": 3210,
      "Ġconcer": 3211,
      "Ġweren": 3212,
      "ĠLorenzo": 3213,
      "Ġplague": 3214,
      "Ġris": 3215,
      "ĠOli": 3216,
      "Ġunf": 3217,
      "Ġexactly": 3218,
      "ager": 3219,
      "Ġchoice": 3220,
      "Ġprov": 3221,
      "Ġwanted": 3222,
      "ĠGon": 3223,
      "Ġcalling": 3224,
      "ĠThy": 3225,
      "Ġremain": 3226,
      "ĠKent": 3227,
      "Ġcontro": 3228,
      "Ġresol": 3229,
      "Ġcrowns": 3230,
      "Ġnatural": 3231,
      "Ġcountrymen": 3232,
      "Ġgreen": 3233,
      "Show": 3234,
      "Ġcondition": 3235,
      "ĠOctavia": 3236,
      "Art": 3237,
      "Prithee": 3238,
      "Ġpractice": 3239,
      "Ġmemory": 3240,
      "ĠâĢĥâĢĥâĢĥ": 3241,
      "Ġbastard": 3242,
      "lanch": 3243,
      "garet": 3244,
      "auncelot": 3245,
      "ĠOlivia": 3246,
      "ax": 3247,
      "iot": 3248,
      "rit": 3249,
      "ug": 3250,
      "Ġut": 3251,
      "Ġwives": 3252,
      "orge": 3253,
      "Ġfare": 3254,
      "Ġled": 3255,
      "Ġcit": 3256,
      "erv": 3257,
      "Ġpict": 3258,
      "eds": 3259,
      "ature": 3260,
      "Ġmeasure": 3261,
      "Ġeight": 3262,
      "Ġform": 3263,
      "Ġstro": 3264,
      "Ġreceive": 3265,
      "Ġanc": 3266,
      "ained": 3267,
      "Ġspent": 3268,
      "Ġspend": 3269,
      "ĠAndrew": 3270,
      "Ġwouldst": 3271,
      "Ġamaz": 3272,
      "Ġjest": 3273,
      "ĠHoratio": 3274,
      "Ġarrest": 3275,
      "ĠFriar": 3276,
      "ĠPhil": 3277,
      "Ġpost": 3278,
      "Ġrans": 3279,
      "olk": 3280,
      "orns": 3281,
      "Ġgreater": 3282,
      "ĠNot": 3283,
      "Ġwitch": 3284,
      "bling": 3285,
      "Ġcomplet": 3286,
      "Ġcontin": 3287,
      "Ġstanding": 3288,
      "Ġmonstrous": 3289,
      "Ġfellows": 3290,
      "Ġboys": 3291,
      "Ġentertain": 3292,
      "Ġfeeling": 3293,
      "Ġwearing": 3294,
      "Ġtreasure": 3295,
      "Ġpurse": 3296,
      "Ġwindow": 3297,
      "Ġbride": 3298,
      "Ġadvantage": 3299,
      "Ġinstead": 3300,
      "ĠEdmund": 3301,
      "Ġbanish": 3302,
      "Ġships": 3303,
      "Ġsky": 3304,
      "Ġrefuse": 3305,
      "Ġsilver": 3306,
      "ĠCapit": 3307,
      "Ġprotect": 3308,
      "Ġhuge": 3309,
      "Ġdagger": 3310,
      "Ġavoid": 3311,
      "Fie": 3312,
      "Love": 3313,
      "Mark": 3314,
      "Se": 3315,
      "bus": 3316,
      "bably": 3317,
      "iest": 3318,
      "nough": 3319,
      "nown": 3320,
      "pri": 3321,
      "side": 3322,
      "ued": 3323,
      "vior": 3324,
      "Ġmortal": 3325,
      "Ġbas": 3326,
      "onest": 3327,
      "Ġlist": 3328,
      "Ġcell": 3329,
      "erve": 3330,
      "Ġpound": 3331,
      "stable": 3332,
      "Ġmeat": 3333,
      "Ġmelanch": 3334,
      "ety": 3335,
      "Ġyourselves": 3336,
      "idus": 3337,
      "Ġstud": 3338,
      "ordelia": 3339,
      "ĠTom": 3340,
      "Ġsex": 3341,
      "Ġseal": 3342,
      "Young": 3343,
      "Ġshore": 3344,
      "Ġshape": 3345,
      "epidus": 3346,
      "ĠSome": 3347,
      "Ġconv": 3348,
      "Ġfail": 3349,
      "Ġrot": 3350,
      "ĠEven": 3351,
      "Ġexper": 3352,
      "Ġdisgu": 3353,
      "Wherefore": 3354,
      "Ġadm": 3355,
      "Ġfairy": 3356,
      "Ġsmell": 3357,
      "Ġcontract": 3358,
      "Ġmatters": 3359,
      "Ġpriest": 3360,
      "Ġchanged": 3361,
      "Ġpowerful": 3362,
      "Ġblessed": 3363,
      "Ġweeping": 3364,
      "Ġstreets": 3365,
      "Ġspoken": 3366,
      "Ġidiot": 3367,
      "remio": 3368,
      "ĠThisbe": 3369,
      "Ġambition": 3370,
      "Ġeasy": 3371,
      "ĠCharles": 3372,
      "which": 3373,
      "Ġabsolute": 3374,
      "ĠConstable": 3375,
      "Ġsolemn": 3376,
      "Ġposition": 3377,
      "Ġtroops": 3378,
      "Ġdearest": 3379,
      "Ġargument": 3380,
      "Ġcomplete": 3381,
      "ĠCapitol": 3382,
      "Ġmelancholy": 3383,
      "Hur": 3384,
      "Hence": 3385,
      "Hail": 3386,
      "Right": 3387,
      "bit": 3388,
      "can": 3389,
      "lace": 3390,
      "tered": 3391,
      "you": 3392,
      "ylock": 3393,
      "zen": 3394,
      "Ġed": 3395,
      "ĠHere": 3396,
      "Ġtear": 3397,
      "Ġsy": 3398,
      "Ġsal": 3399,
      "Ġsour": 3400,
      "Ġsins": 3401,
      "read": 3402,
      "Ġbark": 3403,
      "oral": 3404,
      "orious": 3405,
      "Ġdry": 3406,
      "Ġlar": 3407,
      "Ġcred": 3408,
      "Ġcure": 3409,
      "erk": 3410,
      "eriss": 3411,
      "Ġow": 3412,
      "Ġthunder": 3413,
      "omach": 3414,
      "Ġmeth": 3415,
      "Ġinj": 3416,
      "riel": 3417,
      "uring": 3418,
      "Ġdeceived": 3419,
      "ĠTur": 3420,
      "Ġsepar": 3421,
      "ĠCordelia": 3422,
      "rust": 3423,
      "room": 3424,
      "geon": 3425,
      "ctly": 3426,
      "auph": 3427,
      "Ġswift": 3428,
      "Ġtells": 3429,
      "ember": 3430,
      "ĠPortia": 3431,
      "Ġmoved": 3432,
      "Ġrasc": 3433,
      "ĠDauph": 3434,
      "ĠRegan": 3435,
      "Ġgets": 3436,
      "Ġmarch": 3437,
      "Ġmarvel": 3438,
      "esario": 3439,
      "Ġfathers": 3440,
      "umber": 3441,
      "Ġfled": 3442,
      "Ġflowers": 3443,
      "Ġrude": 3444,
      "acher": 3445,
      "Ġdesper": 3446,
      "Ġdeadly": 3447,
      "Ġtroth": 3448,
      "ertes": 3449,
      "Ġminds": 3450,
      "Ġwronged": 3451,
      "Ġconsent": 3452,
      "Ġemp": 3453,
      "Ġpersu": 3454,
      "Ġpretend": 3455,
      "ĠWere": 3456,
      "ĠMargaret": 3457,
      "Ġmaiden": 3458,
      "Ġeasily": 3459,
      "Ġwretched": 3460,
      "ĠOctavius": 3461,
      "Ġsuspect": 3462,
      "Ġtailor": 3463,
      "Ġfancy": 3464,
      "Ġbehavior": 3465,
      "Ġdifferent": 3466,
      "Ġoccasion": 3467,
      "Ġunkind": 3468,
      "Ġangel": 3469,
      "Cassio": 3470,
      "Ġcandle": 3471,
      "Ġbodies": 3472,
      "ĠPhoebe": 3473,
      "Ġransom": 3474,
      "erissa": 3475,
      "ĠDauphin": 3476,
      "Ed": 3477,
      "Re": 3478,
      "Somet": 3479,
      "Wilt": 3480,
      "aertes": 3481,
      "cum": 3482,
      "ivil": 3483,
      "ivers": 3484,
      "kay": 3485,
      "rim": 3486,
      "uri": 3487,
      "uation": 3488,
      "wall": 3489,
      "ware": 3490,
      "yond": 3491,
      "Ġir": 3492,
      "Ġteet": 3493,
      "Ġach": 3494,
      "ounce": 3495,
      "Ġmut": 3496,
      "Ġwide": 3497,
      "Ġwander": 3498,
      "Ġbill": 3499,
      "Ġfru": 3500,
      "Ġfish": 3501,
      "Ġdar": 3502,
      "itious": 3503,
      "itude": 3504,
      "Ġlaid": 3505,
      "Ġcust": 3506,
      "erona": 3507,
      "Ġobs": 3508,
      "ingly": 3509,
      "anley": 3510,
      "eness": 3511,
      "ative": 3512,
      "utio": 3513,
      "Ġissue": 3514,
      "oop": 3515,
      "Ġstones": 3516,
      "Ġstomach": 3517,
      "Ġdogs": 3518,
      "ĠTower": 3519,
      "ĠCorn": 3520,
      "Ġupset": 3521,
      "Ġshed": 3522,
      "ĠMerc": 3523,
      "Ġamong": 3524,
      "Ġsworn": 3525,
      "arent": 3526,
      "Ġconj": 3527,
      "Ġabove": 3528,
      "elt": 3529,
      "ĠHarry": 3530,
      "ĠLauncelot": 3531,
      "Ġplans": 3532,
      "ĠDen": 3533,
      "Ġprovo": 3534,
      "Ġproceed": 3535,
      "Ġprobably": 3536,
      "ĠThen": 3537,
      "ĠGremio": 3538,
      "ĠThough": 3539,
      "Before": 3540,
      "Ġrepent": 3541,
      "Ġfearful": 3542,
      "Ġpraised": 3543,
      "Ġdouble": 3544,
      "ĠOrlando": 3545,
      "Ġclock": 3546,
      "Ġhanged": 3547,
      "Ġsnake": 3548,
      "ĠWhose": 3549,
      "Ġfaults": 3550,
      "Ġtemp": 3551,
      "Ġprepare": 3552,
      "Ġyester": 3553,
      "Ġbooks": 3554,
      "Ġembrace": 3555,
      "Quiet": 3556,
      "Ġshadow": 3557,
      "Ġlabor": 3558,
      "ĠScot": 3559,
      "Ġliberty": 3560,
      "Ġtrumpet": 3561,
      "Believe": 3562,
      "Ġauthority": 3563,
      "Ġcontrol": 3564,
      "Ġteeth": 3565,
      "Signior": 3566,
      "hood": 3567,
      "po": 3568,
      "ron": 3569,
      "uct": 3570,
      "ĠYet": 3571,
      "Ġtort": 3572,
      "Ġtable": 3573,
      "Ġsqu": 3574,
      "ina": 3575,
      "rep": 3576,
      "Ġbab": 3577,
      "orse": 3578,
      "Ġdance": 3579,
      "Ġlest": 3580,
      "Ġhera": 3581,
      "Ġpick": 3582,
      "oman": 3583,
      "Ġev": 3584,
      "Ġweight": 3585,
      "Ġug": 3586,
      "aded": 3587,
      "Ġdoct": 3588,
      "Ġreceived": 3589,
      "ĠTranio": 3590,
      "ams": 3591,
      "tern": 3592,
      "ilan": 3593,
      "hange": 3594,
      "Ġshrew": 3595,
      "ieves": 3596,
      "ĠMore": 3597,
      "ĠBur": 3598,
      "Ġoutside": 3599,
      "Three": 3600,
      "ulvia": 3601,
      "Ġblows": 3602,
      "ĠHortensio": 3603,
      "Ġunha": 3604,
      "unning": 3605,
      "Ġride": 3606,
      "Ġhasn": 3607,
      "ĠThese": 3608,
      "ĠGe": 3609,
      "Ġkey": 3610,
      "Ġmeaning": 3611,
      "Ġdesires": 3612,
      "Ġduked": 3613,
      "Ġprevent": 3614,
      "Ġrob": 3615,
      "Ġfriendship": 3616,
      "Ġharsh": 3617,
      "Ġsmart": 3618,
      "Ġhusbands": 3619,
      "Ġanswered": 3620,
      "Ġbreast": 3621,
      "Ġentire": 3622,
      "Ġdevils": 3623,
      "Ġsisters": 3624,
      "Ġtravel": 3625,
      "Ġhonesty": 3626,
      "Ġglass": 3627,
      "Ġassure": 3628,
      "Ġthrone": 3629,
      "Ġtrick": 3630,
      "Ġcourtes": 3631,
      "Ġtongues": 3632,
      "Ġgolden": 3633,
      "cape": 3634,
      "Ġexpress": 3635,
      "Ġstarted": 3636,
      "Maybe": 3637,
      "Ġtempt": 3638,
      "Ġambitious": 3639,
      "Ġapproach": 3640,
      "place": 3641,
      "Ġmanner": 3642,
      "ĠShould": 3643,
      "Truly": 3644,
      "Ġmurdered": 3645,
      "Ġfinished": 3646,
      "Ġmonths": 3647,
      "Ġcreature": 3648,
      "Ġglove": 3649,
      "hearted": 3650,
      "Ġcircum": 3651,
      "ĠMessala": 3652,
      "Ġviol": 3653,
      "Ġcitiz": 3654,
      "Ġcompletely": 3655,
      "Hurry": 3656,
      "Ġherald": 3657,
      "Brutus": 3658,
      "Draw": 3659,
      "Father": 3660,
      "Faith": 3661,
      "Pl": 3662,
      "cha": 3663,
      "cap": 3664,
      "erest": 3665,
      "ipped": 3666,
      "onder": 3667,
      "ris": 3668,
      "sing": 3669,
      "vious": 3670,
      "Ġven": 3671,
      "Ġignor": 3672,
      "Ġtired": 3673,
      "haps": 3674,
      "Ġbow": 3675,
      "Ġbot": 3676,
      "Ġbare": 3677,
      "Ġbite": 3678,
      "Ġfreed": 3679,
      "Ġcool": 3680,
      "Ġcup": 3681,
      "ances": 3682,
      "Ġph": 3683,
      "Ġport": 3684,
      "Ġpowers": 3685,
      "Ġmend": 3686,
      "cend": 3687,
      "Ġreve": 3688,
      "uss": 3689,
      "Ġdemand": 3690,
      "ĠTop": 3691,
      "Ġlocked": 3692,
      "ĠCupid": 3693,
      "Ġknife": 3694,
      "Ġkneel": 3695,
      "ili": 3696,
      "Ġknowledge": 3697,
      "Ġlikely": 3698,
      "ĠMilan": 3699,
      "Ġsirrah": 3700,
      "ĠBl": 3701,
      "ĠBanquo": 3702,
      "ĠSy": 3703,
      "Ġswe": 3704,
      "ica": 3705,
      "Ġfaces": 3706,
      "Ġanymore": 3707,
      "Ġsaved": 3708,
      "ĠLepidus": 3709,
      "ĠLaertes": 3710,
      "Ġpluck": 3711,
      "ĠPeter": 3712,
      "Ġmadman": 3713,
      "Ġuns": 3714,
      "aves": 3715,
      "aged": 3716,
      "Ġearl": 3717,
      "aced": 3718,
      "acle": 3719,
      "Ġimm": 3720,
      "Ġimper": 3721,
      "ĠNerissa": 3722,
      "osition": 3723,
      "Ġslept": 3724,
      "peror": 3725,
      "Ġkindly": 3726,
      "Ġpeas": 3727,
      "Ġturns": 3728,
      "Ġbreed": 3729,
      "Ġmistake": 3730,
      "aints": 3731,
      "Ġconsp": 3732,
      "ĠVerona": 3733,
      "Ġcheek": 3734,
      "Ġtreacher": 3735,
      "Ġorders": 3736,
      "Ġordered": 3737,
      "Ġcover": 3738,
      "Ġsupport": 3739,
      "ĠĠĠĠ": 3740,
      "Alack": 3741,
      "Ġsingle": 3742,
      "Ġdrunken": 3743,
      "Ġdelight": 3744,
      "Ġtraitors": 3745,
      "Ġknocking": 3746,
      "Ġwritten": 3747,
      "Ġcastle": 3748,
      "Ġsummer": 3749,
      "Ġconstant": 3750,
      "Ġneighbor": 3751,
      "Gentlemen": 3752,
      "Ġscarce": 3753,
      "icular": 3754,
      "ĠAthens": 3755,
      "Ġsafety": 3756,
      "sino": 3757,
      "Remember": 3758,
      "Ġcredit": 3759,
      "Ġcircumst": 3760,
      "ĠTopas": 3761,
      "Fair": 3762,
      "Run": 3763,
      "Sha": 3764,
      "Send": 3765,
      "Sure": 3766,
      "awn": 3767,
      "con": 3768,
      "ipe": 3769,
      "lm": 3770,
      "mark": 3771,
      "of": 3772,
      "Ġver": 3773,
      "Ġtest": 3774,
      "Ġtune": 3775,
      "Ġsell": 3776,
      "Ġsink": 3777,
      "Ġmal": 3778,
      "vest": 3779,
      "Ġfil": 3780,
      "Ġfears": 3781,
      "Ġdet": 3782,
      "Ġdwell": 3783,
      "Ġdressed": 3784,
      "Ġcre": 3785,
      "Ġcost": 3786,
      "eril": 3787,
      "Ġnames": 3788,
      "Ġnaked": 3789,
      "Ġhol": 3790,
      "Ġod": 3791,
      "anish": 3792,
      "Ġple": 3793,
      "Ġpure": 3794,
      "Ġgross": 3795,
      "edy": 3796,
      "edious": 3797,
      "Ġbeyond": 3798,
      "ution": 3799,
      "Ġeld": 3800,
      "Ġstick": 3801,
      "ĠAriel": 3802,
      "Ġdew": 3803,
      "Ġdefe": 3804,
      "Ġdecl": 3805,
      "ĠTrinculo": 3806,
      "Ġsees": 3807,
      "Ġhers": 3808,
      "ify": 3809,
      "ils": 3810,
      "ilia": 3811,
      "Ġnobl": 3812,
      "ivered": 3813,
      "hano": 3814,
      "hance": 3815,
      "ntil": 3816,
      "Ġhearing": 3817,
      "iew": 3818,
      "ĠMake": 3819,
      "ephano": 3820,
      "ĠSp": 3821,
      "Ġvows": 3822,
      "Ġabused": 3823,
      "empt": 3824,
      "Ġpock": 3825,
      "Ġshouldn": 3826,
      "Ġbrings": 3827,
      "Ġunb": 3828,
      "Ġdaylight": 3829,
      "Ġinterest": 3830,
      "Ġruin": 3831,
      "Ġruined": 3832,
      "Ġkilling": 3833,
      "Ġheavenly": 3834,
      "Ġcompl": 3835,
      "Ġperfor": 3836,
      "Ġplaying": 3837,
      "Ġcommend": 3838,
      "Ġsmo": 3839,
      "Ġclou": 3840,
      "Ġbelong": 3841,
      "Ġbears": 3842,
      "onsieur": 3843,
      "Ġactors": 3844,
      "Ġhumble": 3845,
      "Ġinsane": 3846,
      "Ġinsult": 3847,
      "Ġsends": 3848,
      "Ġcoz": 3849,
      "Ġwisely": 3850,
      "Ġawful": 3851,
      "Ġsupposed": 3852,
      "Ġsituation": 3853,
      "Ġreturned": 3854,
      "Ġbesides": 3855,
      "Ġdispleas": 3856,
      "Ġbeaten": 3857,
      "Thanks": 3858,
      "Ġimagine": 3859,
      "Ġshortly": 3860,
      "Ġwinter": 3861,
      "Ġwaste": 3862,
      "Ġmeantime": 3863,
      "Ġcele": 3864,
      "Ġhung": 3865,
      "Ġaffair": 3866,
      "Ġsuspic": 3867,
      "Ġmidnight": 3868,
      "Ġprofit": 3869,
      "Ġforgotten": 3870,
      "Ġcommitted": 3871,
      "Ġequal": 3872,
      "Ġimagination": 3873,
      "ĠKatherine": 3874,
      "Ġrespons": 3875,
      "Ġceremony": 3876,
      "Adieu": 3877,
      "initely": 3878,
      "Ġsuccess": 3879,
      "Methinks": 3880,
      "Ġthroat": 3881,
      "Ġdesperate": 3882,
      "Ġyesterday": 3883,
      "ĠGeorge": 3884,
      "?âĢĿ": 3885,
      "Bid": 3886,
      "Either": 3887,
      "Enough": 3888,
      "Like": 3889,
      "Mac": 3890,
      "Mistress": 3891,
      "afe": 3892,
      "action": 3893,
      "gund": 3894,
      "hy": 3895,
      "house": 3896,
      "mission": 3897,
      "nat": 3898,
      "nam": 3899,
      "ply": 3900,
      "rite": 3901,
      "tic": 3902,
      "ĠGo": 3903,
      "Ġtame": 3904,
      "Ġsau": 3905,
      "Ġwench": 3906,
      "Ġben": 3907,
      "Ġbottom": 3908,
      "ising": 3909,
      "Ġfate": 3910,
      "Ġfelt": 3911,
      "Ġdue": 3912,
      "Ġlend": 3913,
      "Ġchat": 3914,
      "Ġcries": 3915,
      "Ġcunning": 3916,
      "erable": 3917,
      "Ġheld": 3918,
      "ank": 3919,
      "Ġpal": 3920,
      "omed": 3921,
      "lect": 3922,
      "imin": 3923,
      "iment": 3924,
      "Ġweather": 3925,
      "ria": 3926,
      "alty": 3927,
      "rab": 3928,
      "urder": 3929,
      "amb": 3930,
      "ified": 3931,
      "essica": 3932,
      "ilst": 3933,
      "ieces": 3934,
      "ĠMen": 3935,
      "ĠMonsieur": 3936,
      "Ġours": 3937,
      "Ġconce": 3938,
      "âĢĿâĢĶ": 3939,
      "Ġplaces": 3940,
      "Ġpoet": 3941,
      "aking": 3942,
      "ĠDun": 3943,
      "ĠRe": 3944,
      "Ġexec": 3945,
      "Ġeng": 3946,
      "ĠWell": 3947,
      "Ġbecomes": 3948,
      "acy": 3949,
      "iance": 3950,
      "Ġdesert": 3951,
      "Ġparticular": 3952,
      "Ġprayer": 3953,
      "Ġstayed": 3954,
      "Ġdearly": 3955,
      "Ġraise": 3956,
      "Ġsleeps": 3957,
      "ctions": 3958,
      "Ġasking": 3959,
      "Ġbrain": 3960,
      "Ġfollows": 3961,
      "iety": 3962,
      "ĠBeing": 3963,
      "Ġcarefully": 3964,
      "Ġhandsome": 3965,
      "Ġfeelings": 3966,
      "Ġrunning": 3967,
      "Ġsentence": 3968,
      "Ġhumbly": 3969,
      "Ġrecord": 3970,
      "Ġdreams": 3971,
      "Ġlands": 3972,
      "Ġsinging": 3973,
      "ixed": 3974,
      "Ġfury": 3975,
      "Ġhateful": 3976,
      "Ġcarri": 3977,
      "Twas": 3978,
      "Ġlearned": 3979,
      "Ġlucky": 3980,
      "Ġmessengers": 3981,
      "Ġprepar": 3982,
      "Ġprepared": 3983,
      "Ġprisoner": 3984,
      "Ġbroke": 3985,
      "ĠCapul": 3986,
      "Ġwretch": 3987,
      "True": 3988,
      "Ġactions": 3989,
      "Ġpenalty": 3990,
      "Ġdestro": 3991,
      "Ġfleet": 3992,
      "Ġsuddenly": 3993,
      "Ġjewel": 3994,
      "Ġvictory": 3995,
      "Ġlangu": 3996,
      "Ġlater": 3997,
      "ĠCornwall": 3998,
      "ĠMercutio": 3999,
      "ĠScotland": 4000,
      "Ġugly": 4001,
      "ĠBurgund": 4002,
      "Ġcitizens": 4003,
      "Ġcelebr": 4004,
      "ĠBurgundy": 4005,
      "Br": 4006,
      "Dis": 4007,
      "Death": 4008,
      "Hath": 4009,
      "Mine": 4010,
      "Set": 4011,
      "Tybalt": 4012,
      "aff": 4013,
      "aze": 4014,
      "bury": 4015,
      "col": 4016,
      "fle": 4017,
      "gged": 4018,
      "pent": 4019,
      "rate": 4020,
      "with": 4021,
      "ĠNow": 4022,
      "Ġtedious": 4023,
      "Ġay": 4024,
      "Ġaught": 4025,
      "Ġsides": 4026,
      "Ġmart": 4027,
      "inius": 4028,
      "Ġbother": 4029,
      "Ġbase": 4030,
      "Ġfart": 4031,
      "Ġla": 4032,
      "Ġcivil": 4033,
      "Ġnamed": 4034,
      "Ġthrice": 4035,
      "Ġgard": 4036,
      "Ġgoose": 4037,
      "omm": 4038,
      "Ġmere": 4039,
      "illy": 4040,
      "asy": 4041,
      "rive": 4042,
      "ĠAgainst": 4043,
      "ording": 4044,
      "ushed": 4045,
      "Ġsearch": 4046,
      "Ġlod": 4047,
      "eally": 4048,
      "Ġgoodness": 4049,
      "aunt": 4050,
      "Ġwash": 4051,
      "eard": 4052,
      "Ġseemed": 4053,
      "ĠBottom": 4054,
      "Ġvain": 4055,
      "icate": 4056,
      "Ġorc": 4057,
      "ĠHonor": 4058,
      "ĠEar": 4059,
      "Ġexam": 4060,
      "Ġhadst": 4061,
      "Ġnights": 4062,
      "ĠWors": 4063,
      "Ġfond": 4064,
      "Ġflood": 4065,
      "Ġrule": 4066,
      "Ġadieu": 4067,
      "Ġbegged": 4068,
      "Ġtalked": 4069,
      "swer": 4070,
      "Ġslow": 4071,
      "Ġperil": 4072,
      "Ġappears": 4073,
      "udge": 4074,
      "Ġguilt": 4075,
      "Ġjoke": 4076,
      "Ġimposs": 4077,
      "Ġrememb": 4078,
      "Ġweary": 4079,
      "Ġcharm": 4080,
      "Ġcurt": 4081,
      "Ġwinds": 4082,
      "Ġpresence": 4083,
      "Ġwalking": 4084,
      "Ġpleased": 4085,
      "avy": 4086,
      "Ġexplain": 4087,
      "Ġterms": 4088,
      "Ġcarried": 4089,
      "Ġdelay": 4090,
      "ĠVenet": 4091,
      "Ġtemper": 4092,
      "Ġdrops": 4093,
      "Ġprincess": 4094,
      "Ġcorrupt": 4095,
      "Ġwishes": 4096,
      "Ġfamily": 4097,
      "Everyone": 4098,
      "Everything": 4099,
      "Ġprotest": 4100,
      "twas": 4101,
      "Ġnecklace": 4102,
      "ippi": 4103,
      "Ġmedic": 4104,
      "Ġstopped": 4105,
      "Ġdisgrace": 4106,
      "Ġsenses": 4107,
      "Ġshouting": 4108,
      "ounter": 4109,
      "Ġfinger": 4110,
      "Ġslander": 4111,
      "ĠEmilia": 4112,
      "Ġobedient": 4113,
      "Ġdrawn": 4114,
      "Ġmarketplace": 4115,
      "Ġpicture": 4116,
      "Ġancient": 4117,
      "ĠPhilippi": 4118,
      "Ġmethinks": 4119,
      "urious": 4120,
      "Ġevidence": 4121,
      "Ġfreedom": 4122,
      "ĠWorship": 4123,
      "Ġimpossible": 4124,
      "Ab": 4125,
      "Con": 4126,
      "Fool": 4127,
      "Honest": 4128,
      "Men": 4129,
      "Murder": 4130,
      "None": 4131,
      "Read": 4132,
      "Really": 4133,
      "Sit": 4134,
      "Such": 4135,
      "ex": 4136,
      "folk": 4137,
      "how": 4138,
      "iam": 4139,
      "mor": 4140,
      "nock": 4141,
      "oint": 4142,
      "sy": 4143,
      "val": 4144,
      "Ġing": 4145,
      "Ġwra": 4146,
      "Ġwished": 4147,
      "Ġband": 4148,
      "Ġbury": 4149,
      "isure": 4150,
      "Ġdign": 4151,
      "Ġlines": 4152,
      "Ġnun": 4153,
      "Ġpear": 4154,
      "Ġpred": 4155,
      "Ġgrown": 4156,
      "Ġbend": 4157,
      "illed": 4158,
      "Ġforces": 4159,
      "Ġung": 4160,
      "Ġkins": 4161,
      "Ġstol": 4162,
      "ĠAr": 4163,
      "ĠAud": 4164,
      "ords": 4165,
      "Ġseason": 4166,
      "Ġloath": 4167,
      "Ġkne": 4168,
      "Ġallow": 4169,
      "Ġshot": 4170,
      "While": 4171,
      "Ġlordship": 4172,
      "ĠSignor": 4173,
      "Ġview": 4174,
      "icious": 4175,
      "Ġmadness": 4176,
      "ĠOut": 4177,
      "Ġunnat": 4178,
      "Ġquit": 4179,
      "Ġfriar": 4180,
      "assad": 4181,
      "Ġchoo": 4182,
      "Ġproble": 4183,
      "Ġleisure": 4184,
      "Ġfolly": 4185,
      "Ġgreatest": 4186,
      "Ġearn": 4187,
      "Ġpartly": 4188,
      "Ġscared": 4189,
      "bered": 4190,
      "Ġperceive": 4191,
      "Ġfairly": 4192,
      "Ġsurely": 4193,
      "Ġshowed": 4194,
      "Ġfalls": 4195,
      "Ġcheeks": 4196,
      "ized": 4197,
      "Ġtrees": 4198,
      "Ġworthless": 4199,
      "Ġlightning": 4200,
      "Ġsadness": 4201,
      "Ġattention": 4202,
      "Ġaccus": 4203,
      "Ġaccomp": 4204,
      "Ġblessing": 4205,
      "nobar": 4206,
      "Ġstreet": 4207,
      "Ġfreely": 4208,
      "Ġdefinitely": 4209,
      "Ġlaug": 4210,
      "Ġdelivered": 4211,
      "Ġpoisonous": 4212,
      "ĠQu": 4213,
      "ney": 4214,
      "Ġjealousy": 4215,
      "Ġcondem": 4216,
      "Ġprophe": 4217,
      "Ġdaggers": 4218,
      "Ġtorch": 4219,
      "Ġquality": 4220,
      "Ġsenators": 4221,
      "Ġbetrayed": 4222,
      "ĠAdam": 4223,
      "Ġacquaint": 4224,
      "ursday": 4225,
      "Ġclouds": 4226,
      "Macbeth": 4227,
      "ĠAudrey": 4228,
      "nobarbus": 4229,
      "Both": 4230,
      "Hast": 4231,
      "Lady": 4232,
      "Many": 4233,
      "Pro": 4234,
      "Pardon": 4235,
      "aur": 4236,
      "aving": 4237,
      "born": 4238,
      "do": 4239,
      "ev": 4240,
      "mm": 4241,
      "ped": 4242,
      "rs": 4243,
      "time": 4244,
      "uce": 4245,
      "what": 4246,
      "who": 4247,
      "woman": 4248,
      "yr": 4249,
      "Ġvent": 4250,
      "Ġtall": 4251,
      "Ġaim": 4252,
      "Ġmention": 4253,
      "inary": 4254,
      "reck": 4255,
      "itic": 4256,
      "Ġcher": 4257,
      "Ġcop": 4258,
      "Ġcorn": 4259,
      "Ġcock": 4260,
      "Ġcovered": 4261,
      "Ġtot": 4262,
      "eral": 4263,
      "Ġhy": 4264,
      "Ġhoney": 4265,
      "Ġhunt": 4266,
      "ĠInd": 4267,
      "Ġheels": 4268,
      "ania": 4269,
      "Ġpin": 4270,
      "Ġpush": 4271,
      "Ġpieces": 4272,
      "Ġgently": 4273,
      "Ġhaz": 4274,
      "Ġep": 4275,
      "Ġevent": 4276,
      "illing": 4277,
      "Ġforty": 4278,
      "Ġformer": 4279,
      "adua": 4280,
      "Ġnotice": 4281,
      "rif": 4282,
      "Ġliar": 4283,
      "Ġstret": 4284,
      "Ġrej": 4285,
      "ĠAt": 4286,
      "Ġsol": 4287,
      "Ġspite": 4288,
      "ĠBel": 4289,
      "Ġjail": 4290,
      "Ġvar": 4291,
      "Ġvow": 4292,
      "Ġfaire": 4293,
      "ĠHad": 4294,
      "ĠPadua": 4295,
      "Ġprod": 4296,
      "Ġpros": 4297,
      "Ġintent": 4298,
      "Ġolder": 4299,
      "Ġtrade": 4300,
      "Ġfee": 4301,
      "ĠJove": 4302,
      "ĠJessica": 4303,
      "Ġbegan": 4304,
      "Ġscold": 4305,
      "Ġyounger": 4306,
      "Ġperform": 4307,
      "Ġplayed": 4308,
      "Ġcontr": 4309,
      "Ġsometimes": 4310,
      "Ġbadly": 4311,
      "ĠBefore": 4312,
      "Ġvillains": 4313,
      "Ġactually": 4314,
      "Ġglory": 4315,
      "Ġprize": 4316,
      "inning": 4317,
      "Ġpurcha": 4318,
      "Ġbusy": 4319,
      "Ġholds": 4320,
      "Ġaccount": 4321,
      "Ġrecently": 4322,
      "ĠUnto": 4323,
      "claim": 4324,
      "Ġdrum": 4325,
      "Ġadvise": 4326,
      "Ġadvance": 4327,
      "noon": 4328,
      "Ġdrinking": 4329,
      "Ġvalue": 4330,
      "Ġsounds": 4331,
      "Ġdispatch": 4332,
      "Ġcrimes": 4333,
      "ĠStephano": 4334,
      "Ġidle": 4335,
      "Ġvirtues": 4336,
      "Ġdeeds": 4337,
      "Ġexchange": 4338,
      "Ġburning": 4339,
      "Ġrank": 4340,
      "Ġseriously": 4341,
      "Ġsubjects": 4342,
      "Ġmiddle": 4343,
      "Ġdespair": 4344,
      "Ġtorment": 4345,
      "Ġgroan": 4346,
      "Ġqualities": 4347,
      "Ġstole": 4348,
      "Ġloyalty": 4349,
      "Ġweapon": 4350,
      "Antonio": 4351,
      "Ġdreadful": 4352,
      "Ġlunch": 4353,
      "Ġanimal": 4354,
      "ĠFortune": 4355,
      "ĠExeter": 4356,
      "ĠâĢĥâĢĥâĢĥâĢĥ": 4357,
      "Ġlarge": 4358,
      "ĠDenmark": 4359,
      "Ġcourtesy": 4360,
      "Ġlanguage": 4361,
      "Brother": 4362,
      "Ġorchard": 4363,
      "Ġknees": 4364,
      "Ġunnatural": 4365,
      "After": 4366,
      "Fri": 4367,
      "Fear": 4368,
      "Hang": 4369,
      "Knock": 4370,
      "Luc": 4371,
      "Lead": 4372,
      "Once": 4373,
      "Okay": 4374,
      "ald": 4375,
      "aly": 4376,
      "bors": 4377,
      "duff": 4378,
      "fall": 4379,
      "ffered": 4380,
      "ien": 4381,
      "mother": 4382,
      "ner": 4383,
      "oon": 4384,
      "ton": 4385,
      "upp": 4386,
      "uild": 4387,
      "zz": 4388,
      "Ġought": 4389,
      "Ġtar": 4390,
      "hest": 4391,
      "Ġapt": 4392,
      "Ġsalt": 4393,
      "hand": 4394,
      "isc": 4395,
      "isible": 4396,
      "Ġyellow": 4397,
      "orous": 4398,
      "ories": 4399,
      "Ġfant": 4400,
      "Ġfirm": 4401,
      "itable": 4402,
      "Ġlark": 4403,
      "Ġnation": 4404,
      "Ġhig": 4405,
      "ĠIr": 4406,
      "ĠInto": 4407,
      "ening": 4408,
      "enry": 4409,
      "Ġthrust": 4410,
      "Ġpack": 4411,
      "Ġpress": 4412,
      "Ġpier": 4413,
      "Ġbeef": 4414,
      "oted": 4415,
      "Ġhaunt": 4416,
      "ella": 4417,
      "Ġwhis": 4418,
      "Ġwhipped": 4419,
      "ific": 4420,
      "ĠCal": 4421,
      "ĠCinn": 4422,
      "ĠCesario": 4423,
      "ters": 4424,
      "eared": 4425,
      "road": 4426,
      "Ġshines": 4427,
      "Ġsuffered": 4428,
      "antua": 4429,
      "Ġgoodly": 4430,
      "Ġspec": 4431,
      "asty": 4432,
      "ĠMon": 4433,
      "ĠSal": 4434,
      "Ġworship": 4435,
      "icers": 4436,
      "Ġblunt": 4437,
      "ĠHar": 4438,
      "aken": 4439,
      "ĠEros": 4440,
      "ĠDoth": 4441,
      "Ġdism": 4442,
      "Ġdisease": 4443,
      "Ġafeard": 4444,
      "Ġleaves": 4445,
      "Ġwrote": 4446,
      "Ġwherefore": 4447,
      "Ġflies": 4448,
      "Ġruled": 4449,
      "Ġfeather": 4450,
      "Ġhappens": 4451,
      "Ġbegins": 4452,
      "Ġstays": 4453,
      "Ġyoungest": 4454,
      "Ġrare": 4455,
      "Ġbedroom": 4456,
      "Ġguest": 4457,
      "Ġarmed": 4458,
      "Ġbrains": 4459,
      "Ġafternoon": 4460,
      "Still": 4461,
      "Ġstranger": 4462,
      "ails": 4463,
      "Ġworking": 4464,
      "Ġassume": 4465,
      "Ġrecover": 4466,
      "Ġbuild": 4467,
      "Ġcrowned": 4468,
      "Within": 4469,
      "Ġlaws": 4470,
      "fortun": 4471,
      "Ġcrime": 4472,
      "Ġcrimin": 4473,
      "ĠStanley": 4474,
      "Ġskin": 4475,
      "Ġskill": 4476,
      "ĠNorfolk": 4477,
      "Ġdistur": 4478,
      "Ġdelicate": 4479,
      "Ġfeared": 4480,
      "were": 4481,
      "Ġsatisfaction": 4482,
      "Ġfamous": 4483,
      "leness": 4484,
      "Ġinvisible": 4485,
      "Ġmurderer": 4486,
      "Ġapart": 4487,
      "Ġgallant": 4488,
      "Ġlament": 4489,
      "Ġencounter": 4490,
      "Ġweapons": 4491,
      "Ġconclusion": 4492,
      "worthy": 4493,
      "Ġcounterfeit": 4494,
      "Neither": 4495,
      "Ġutter": 4496,
      "Ġbanishment": 4497,
      "Ġdisguise": 4498,
      "Ġrascal": 4499,
      "Ġcustom": 4500,
      "Ġdoctor": 4501,
      "caped": 4502,
      "Ġsweat": 4503,
      "Ġsmooth": 4504,
      "ĠVenetian": 4505,
      "Ġmedicine": 4506,
      "Ġproblem": 4507,
      "Ġrejoice": 4508,
      "ĠCinna": 4509,
      "Bear": 4510,
      "Cl": 4511,
      "Che": 4512,
      "Doth": 4513,
      "Lo": 4514,
      "Per": 4515,
      "Too": 4516,
      "after": 4517,
      "cus": 4518,
      "eem": 4519,
      "twere": 4520,
      "xcom": 4521,
      "ĠGood": 4522,
      "Ġtid": 4523,
      "Ġtaught": 4524,
      "Ġtried": 4525,
      "Ġaud": 4526,
      "Ġsan": 4527,
      "Ġmotion": 4528,
      "Ġwings": 4529,
      "has": 4530,
      "Ġbag": 4531,
      "Ġbac": 4532,
      "Ġbount": 4533,
      "ision": 4534,
      "Ġdow": 4535,
      "Ġdust": 4536,
      "Ġdress": 4537,
      "Ġdried": 4538,
      "iter": 4539,
      "itary": 4540,
      "ering": 4541,
      "Ġodd": 4542,
      "enc": 4543,
      "Ġthither": 4544,
      "Ġthief": 4545,
      "Ġpor": 4546,
      "Ġphil": 4547,
      "Ġparent": 4548,
      "ays": 4549,
      "uts": 4550,
      "Ġisle": 4551,
      "Ġweeds": 4552,
      "Ġsteel": 4553,
      "ĠAm": 4554,
      "Ġsooth": 4555,
      "ellen": 4556,
      "Ġdece": 4557,
      "Ġwhip": 4558,
      "Ġseat": 4559,
      "Ġsever": 4560,
      "aming": 4561,
      "Ġlog": 4562,
      "ĠCor": 4563,
      "ruction": 4564,
      "Ġsuck": 4565,
      "Whither": 4566,
      "asting": 4567,
      "ĠMantua": 4568,
      "ĠBar": 4569,
      "ĠSuch": 4570,
      "Ġworm": 4571,
      "Ġabo": 4572,
      "opher": 4573,
      "Whether": 4574,
      "Ġsac": 4575,
      "ĠLear": 4576,
      "ĠFlu": 4577,
      "ement": 4578,
      "Ġplot": 4579,
      "aker": 4580,
      "ĠEp": 4581,
      "igence": 4582,
      "Ġriver": 4583,
      "ola": 4584,
      "Ġprolo": 4585,
      "ĠGreat": 4586,
      "ĠGuild": 4587,
      "Ġhonors": 4588,
      "Ġchast": 4589,
      "iano": 4590,
      "Ġgraves": 4591,
      "Ġprey": 4592,
      "Ġbegging": 4593,
      "Ġrope": 4594,
      "Ġwont": 4595,
      "ĠThursday": 4596,
      "Ġhopes": 4597,
      "Ġcomplain": 4598,
      "Ġpermission": 4599,
      "Ġservices": 4600,
      "Ġbraw": 4601,
      "Ġbade": 4602,
      "ĠBecause": 4603,
      "Ġcareful": 4604,
      "Ġvillainy": 4605,
      "Ġacting": 4606,
      "Answer": 4607,
      "Ġtrium": 4608,
      "Ġburi": 4609,
      "Ġsickness": 4610,
      "Ġpleasant": 4611,
      "Ġmisery": 4612,
      "Ġhardly": 4613,
      "Ġdistract": 4614,
      "ĠItaly": 4615,
      "Ġtowards": 4616,
      "Ġweakness": 4617,
      "Ġlaughing": 4618,
      "Ġambassad": 4619,
      "Ġcowardly": 4620,
      "Ġfuneral": 4621,
      "Ġtyran": 4622,
      "ĠShylock": 4623,
      "Ġdespite": 4624,
      "ÂłÂłÂłÂłÂłÂłÂłÂłÂłÂłÂłÂłÂłÂłÂłÂłÂłÂłÂłÂłÂłÂłÂłÂłÂłÂłÂłÂłÂłÂłÂłÂł": 4625,
      "Ġburst": 4626,
      "Ġmerchant": 4627,
      "Ġgifts": 4628,
      "Ġhidden": 4629,
      "ratiano": 4630,
      "ĠCannot": 4631,
      "umbers": 4632,
      "ĠMontague": 4633,
      "Ġfingers": 4634,
      "Ġmodest": 4635,
      "Ġmodesty": 4636,
      "ĠTitinius": 4637,
      "ĠTitania": 4638,
      "Ġfigure": 4639,
      "Ġsmiling": 4640,
      "Ġfiery": 4641,
      "Ġstabbed": 4642,
      "ĠGoneril": 4643,
      "Ġstroke": 4644,
      "priate": 4645,
      "Ġadmir": 4646,
      "Edmund": 4647,
      "Ġfruit": 4648,
      "Ġunhappy": 4649,
      "Ġdukedom": 4650,
      "Ġbottle": 4651,
      "Ġpeasant": 4652,
      "Ġodds": 4653,
      "Ġpocket": 4654,
      "Ġdispleasure": 4655,
      "Ġbenef": 4656,
      "Ġfarther": 4657,
      "Ġgarden": 4658,
      "Ġexample": 4659,
      "Ġlaughed": 4660,
      "yrrel": 4661,
      "Ġphilos": 4662,
      "ĠFluellen": 4663,
      "Bet": 4664,
      "Ro": 4665,
      "Richard": 4666,
      "Sister": 4667,
      "Signor": 4668,
      "Tonight": 4669,
      "Until": 4670,
      "Write": 4671,
      "bon": 4672,
      "even": 4673,
      "ibly": 4674,
      "mouth": 4675,
      "phe": 4676,
      "ser": 4677,
      "ubl": 4678,
      "writ": 4679,
      "zed": 4680,
      "Ã©": 4681,
      "Ġmot": 4682,
      "Ġmoral": 4683,
      "reme": 4684,
      "Ġbought": 4685,
      "Ġfut": 4686,
      "Ġfro": 4687,
      "Ġdirty": 4688,
      "Ġlu": 4689,
      "Ġnasty": 4690,
      "ĠIlly": 4691,
      "arus": 4692,
      "arrow": 4693,
      "Ġthread": 4694,
      "Ġpour": 4695,
      "omas": 4696,
      "atic": 4697,
      "atience": 4698,
      "atcl": 4699,
      "Ġhail": 4700,
      "Ġink": 4701,
      "Ġincl": 4702,
      "Ġinvent": 4703,
      "etell": 4704,
      "uted": 4705,
      "imber": 4706,
      "cellent": 4707,
      "Ġforsw": 4708,
      "Ġweek": 4709,
      "ades": 4710,
      "ripp": 4711,
      "Ġaside": 4712,
      "ales": 4713,
      "Ġliest": 4714,
      "Ġsting": 4715,
      "Ġrevol": 4716,
      "ĠAb": 4717,
      "Ġsober": 4718,
      "urst": 4719,
      "Ġdeg": 4720,
      "Ġnephe": 4721,
      "Ġnoon": 4722,
      "Ġshown": 4723,
      "Ġsup": 4724,
      "ntip": 4725,
      "Ġspot": 4726,
      "indarus": 4727,
      "Ġsham": 4728,
      "Ġshare": 4729,
      "ieved": 4730,
      "ouses": 4731,
      "Ġamen": 4732,
      "ĠSw": 4733,
      "ĠSil": 4734,
      "ĠSince": 4735,
      "Ġjack": 4736,
      "Ġabroad": 4737,
      "Ġthence": 4738,
      "Ġsacri": 4739,
      "ĠLest": 4740,
      "ĠFather": 4741,
      "ĠFulvia": 4742,
      "Ġmoan": 4743,
      "Ġrash": 4744,
      "Ġunw": 4745,
      "Ġbox": 4746,
      "Ġboar": 4747,
      "Ġmustard": 4748,
      "ĠCaius": 4749,
      "olab": 4750,
      "rank": 4751,
      "Ġleek": 4752,
      "Soft": 4753,
      "Ġdescri": 4754,
      "Ġparted": 4755,
      "Ġslew": 4756,
      "Ġslaughter": 4757,
      "Ġraised": 4758,
      "Ġperf": 4759,
      "Ġplays": 4760,
      "Ġcommission": 4761,
      "Ġfollowers": 4762,
      "Ġundert": 4763,
      "Didst": 4764,
      "Ġprice": 4765,
      "Ġassured": 4766,
      "Ġcharity": 4767,
      "Ġcurrent": 4768,
      "ĠOrsino": 4769,
      "Ġordinary": 4770,
      "Ġtricks": 4771,
      "Ġcoxcom": 4772,
      "Ġwalked": 4773,
      "Ġdisposition": 4774,
      "Ġmiserable": 4775,
      "ifteen": 4776,
      "Ġstronger": 4777,
      "Ġreading": 4778,
      "Ġdenied": 4779,
      "ĠMacduff": 4780,
      "Ġcounc": 4781,
      "headed": 4782,
      "Ġclever": 4783,
      "Ġpoisoned": 4784,
      "ĠdamnÃ¨d": 4785,
      "Ġprincely": 4786,
      "Ġrelig": 4787,
      "ĠMarch": 4788,
      "Ġgriefs": 4789,
      "prise": 4790,
      "ĠEgyptian": 4791,
      "Ġsilence": 4792,
      "Ġappropriate": 4793,
      "ĠLucius": 4794,
      "Ġinvite": 4795,
      "iban": 4796,
      "Ġoppos": 4797,
      "Ġtitles": 4798,
      "Ġdirect": 4799,
      "Ġescape": 4800,
      "Ġbirds": 4801,
      "Ġbehalf": 4802,
      "Ġpossessed": 4803,
      "Ġdifference": 4804,
      "Ġundone": 4805,
      "Ġinstruct": 4806,
      "Excellent": 4807,
      "ĠWhom": 4808,
      "Ġshadows": 4809,
      "Ġsighs": 4810,
      "Ġjewels": 4811,
      "Antony": 4812,
      "Ġstocks": 4813,
      "icero": 4814,
      "Ġsmiles": 4815,
      "Ġtouched": 4816,
      "Ġtouches": 4817,
      "Ġcaused": 4818,
      "Ġsavage": 4819,
      "Ġmasqu": 4820,
      "Ġtremble": 4821,
      "Ġamazed": 4822,
      "Ġrotten": 4823,
      "ĠTurk": 4824,
      "Ġachieve": 4825,
      "Ġdarling": 4826,
      "Ġconspir": 4827,
      "Shame": 4828,
      "ĠCapulet": 4829,
      "Ġremembrance": 4830,
      "Ġkinsman": 4831,
      "Ġtidings": 4832,
      "Ġbachel": 4833,
      "Ġdowry": 4834,
      "Ġsacred": 4835,
      "Ġprologue": 4836,
      "Ġtriumph": 4837,
      "Ġfuture": 4838,
      "ĠIllyria": 4839,
      "atcliffe": 4840,
      "Ġnephew": 4841,
      "Ġsacrif": 4842,
      "olabella": 4843,
      "Aren": 4844,
      "Up": 4845,
      "bble": 4846,
      "chance": 4847,
      "dain": 4848,
      "draw": 4849,
      "fer": 4850,
      "hol": 4851,
      "iver": 4852,
      "iber": 4853,
      "jest": 4854,
      "lies": 4855,
      "luck": 4856,
      "phel": 4857,
      "ratch": 4858,
      "teen": 4859,
      "tles": 4860,
      "ule": 4861,
      "vive": 4862,
      "vous": 4863,
      "Ġte": 4864,
      "Ġmild": 4865,
      "Ġmaint": 4866,
      "reak": 4867,
      "Ġball": 4868,
      "Ġborrow": 4869,
      "Ġyonder": 4870,
      "orough": 4871,
      "vey": 4872,
      "Ġfain": 4873,
      "Ġfame": 4874,
      "Ġfaster": 4875,
      "Ġfaint": 4876,
      "Ġfifteen": 4877,
      "Ġdumb": 4878,
      "Ġline": 4879,
      "Ġcas": 4880,
      "Ġcaught": 4881,
      "Ġcuck": 4882,
      "Ġtoil": 4883,
      "Ġtoken": 4884,
      "ern": 4885,
      "Ġnest": 4886,
      "Ġnurse": 4887,
      "Ġnumber": 4888,
      "Ġoce": 4889,
      "ario": 4890,
      "Ġheed": 4891,
      "Ġheal": 4892,
      "ene": 4893,
      "enster": 4894,
      "Ġthieves": 4895,
      "Ġpot": 4896,
      "Ġpath": 4897,
      "omin": 4898,
      "Ġbelo": 4899,
      "Ġhaw": 4900,
      "Ġinfect": 4901,
      "sequ": 4902,
      "imate": 4903,
      "irnam": 4904,
      "ads": 4905,
      "ric": 4906,
      "Ġassem": 4907,
      "alf": 4908,
      "Ġstain": 4909,
      "Ġstep": 4910,
      "Ġstraw": 4911,
      "Ġrender": 4912,
      "Ġreign": 4913,
      "ushes": 4914,
      "ourney": 4915,
      "ĠCimber": 4916,
      "Whatever": 4917,
      "rod": 4918,
      "Ġmanage": 4919,
      "Ġshook": 4920,
      "Ġgoods": 4921,
      "Ġcomb": 4922,
      "pping": 4923,
      "ĠBalt": 4924,
      "Ġvan": 4925,
      "Ġoutward": 4926,
      "Ġworms": 4927,
      "Ġshallow": 4928,
      "Ġanyway": 4929,
      "ope": 4930,
      "Ġplant": 4931,
      "ĠPros": 4932,
      "Ġrhy": 4933,
      "oundrel": 4934,
      "ĠDover": 4935,
      "unity": 4936,
      "Ġenfor": 4937,
      "Ġhates": 4938,
      "Ġmarks": 4939,
      "umn": 4940,
      "ranc": 4941,
      "Ġmayst": 4942,
      "urnia": 4943,
      "ĠWall": 4944,
      "ĠGive": 4945,
      "ĠGrey": 4946,
      "Ġhonored": 4947,
      "Ġcharac": 4948,
      "orset": 4949,
      "Ġdeaths": 4950,
      "ression": 4951,
      "Ġparty": 4952,
      "osal": 4953,
      "Ġrogue": 4954,
      "Ġwithered": 4955,
      "blet": 4956,
      "Ġscoundrel": 4957,
      "Ġcompare": 4958,
      "Ġcompass": 4959,
      "Ġappre": 4960,
      "Ġappet": 4961,
      "abian": 4962,
      "Ġwrongs": 4963,
      "onsense": 4964,
      "retion": 4965,
      "lict": 4966,
      "Ġwoes": 4967,
      "Ġpassed": 4968,
      "Ġcrack": 4969,
      "Ġcursed": 4970,
      "Ġforehead": 4971,
      "Ġattack": 4972,
      "Ġhighly": 4973,
      "Ġpleases": 4974,
      "Ġdiscuss": 4975,
      "Ġdiscretion": 4976,
      "Ġsitting": 4977,
      "Ġbank": 4978,
      "Ġborne": 4979,
      "ĠRosaline": 4980,
      "Ġpainful": 4981,
      "Ġcommanded": 4982,
      "Ġsurgeon": 4983,
      "Ġjoyful": 4984,
      "Swear": 4985,
      "Ġfourteen": 4986,
      "phurnia": 4987,
      "Ġfields": 4988,
      "Ġconfession": 4989,
      "ecius": 4990,
      "Ġsorrows": 4991,
      "Ġinterp": 4992,
      "Ġdecided": 4993,
      "Ġlosses": 4994,
      "ubal": 4995,
      "Ġdivine": 4996,
      "Ġforbear": 4997,
      "Ġmirth": 4998,
      "Ġburden": 4999,
      "Ġcreatures": 5000,
      "Ġobst": 5001,
      "Ġlegions": 5002,
      "Ġunknown": 5003,
      "Ġwounded": 5004,
      "Ġshoes": 5005,
      "Ġpulled": 5006,
      "Doesn": 5007,
      "cially": 5008,
      "Ġneglect": 5009,
      "Ġabsolutely": 5010,
      "Ġemplo": 5011,
      "repare": 5012,
      "Ġignorance": 5013,
      "Ġimmortal": 5014,
      "Ġnoblest": 5015,
      "Ġaffairs": 5016,
      "fleur": 5017,
      "Ġdignity": 5018,
      "Ġpurchase": 5019,
      "ĠMonmouth": 5020,
      "ĠHarfleur": 5021,
      "Ġparents": 5022,
      "ĠGuildenster": 5023,
      "Ġburial": 5024,
      "ublius": 5025,
      "etellus": 5026,
      "phelia": 5027,
      "Ġocean": 5028,
      "ĠProsper": 5029,
      "Ġcharacter": 5030,
      "ĠGuildenstern": 5031,
      "Could": 5032,
      "Capt": 5033,
      "Find": 5034,
      "Great": 5035,
      "Iago": 5036,
      "Till": 5037,
      "Time": 5038,
      "Wake": 5039,
      "Watch": 5040,
      "cor": 5041,
      "cra": 5042,
      "go": 5043,
      "just": 5044,
      "kin": 5045,
      "look": 5046,
      "lied": 5047,
      "ming": 5048,
      "maker": 5049,
      "nal": 5050,
      "pes": 5051,
      "pass": 5052,
      "rous": 5053,
      "sc": 5054,
      "upt": 5055,
      "vÃ¨d": 5056,
      "wd": 5057,
      "wed": 5058,
      "Ġtied": 5059,
      "Ġsings": 5060,
      "Ġwing": 5061,
      "Ġbind": 5062,
      "Ġbrow": 5063,
      "isÃ¨d": 5064,
      "llus": 5065,
      "oring": 5066,
      "Ġfurn": 5067,
      "Ġdam": 5068,
      "Ġdine": 5069,
      "Ġdiff": 5070,
      "itive": 5071,
      "Ġlap": 5072,
      "Ġcau": 5073,
      "Ġcab": 5074,
      "Ġcamp": 5075,
      "erved": 5076,
      "Ġnavy": 5077,
      "Ġnumbers": 5078,
      "Ġnarrow": 5079,
      "Ġhire": 5080,
      "Ġhorns": 5081,
      "aring": 5082,
      "aries": 5083,
      "Ġheat": 5084,
      "Ġhelm": 5085,
      "ences": 5086,
      "Ġthick": 5087,
      "Ġpan": 5088,
      "Ġpaint": 5089,
      "Ġpainted": 5090,
      "Ġgent": 5091,
      "Ġgather": 5092,
      "stone": 5093,
      "atives": 5094,
      "Ġeag": 5095,
      "Ġeff": 5096,
      "Ġforfeit": 5097,
      "ashed": 5098,
      "rid": 5099,
      "ident": 5100,
      "idius": 5101,
      "alo": 5102,
      "Ġlions": 5103,
      "Ġstone": 5104,
      "Ġstage": 5105,
      "Ġdozen": 5106,
      "Ġrehe": 5107,
      "Ġrevel": 5108,
      "Ġsore": 5109,
      "ores": 5110,
      "Ġhist": 5111,
      "ellario": 5112,
      "Ġanon": 5113,
      "ushing": 5114,
      "usband": 5115,
      "Ġdeceive": 5116,
      "Ġdemon": 5117,
      "ĠTyrrel": 5118,
      "Ġlock": 5119,
      "Ġgoss": 5120,
      "Ġgodd": 5121,
      "Ġknee": 5122,
      "Ġshr": 5123,
      "Ġsuits": 5124,
      "Ġsugg": 5125,
      "Ġspl": 5126,
      "Ġspring": 5127,
      "Ġsheep": 5128,
      "Ġhereafter": 5129,
      "ously": 5130,
      "ĠMr": 5131,
      "Ġthane": 5132,
      "ĠBirnam": 5133,
      "Ġjourney": 5134,
      "Ġvo": 5135,
      "Ġvouch": 5136,
      "Ġswim": 5137,
      "iced": 5138,
      "Ġconvers": 5139,
      "Ġabbey": 5140,
      "ference": 5141,
      "eless": 5142,
      "ĠHenry": 5143,
      "Ġarrow": 5144,
      "Ġpron": 5145,
      "ĠLie": 5146,
      "ĠLook": 5147,
      "ĠLaw": 5148,
      "ĠLove": 5149,
      "ĠFl": 5150,
      "ĠFer": 5151,
      "ĠPro": 5152,
      "Ġaloud": 5153,
      "Ġrites": 5154,
      "Ġshouldst": 5155,
      "ĠEnobarbus": 5156,
      "ĠDay": 5157,
      "arted": 5158,
      "Ġunm": 5159,
      "Ġunre": 5160,
      "Ġripe": 5161,
      "Ġhadn": 5162,
      "Ġhandwrit": 5163,
      "olves": 5164,
      "Ġproclaim": 5165,
      "Ġaffect": 5166,
      "Ġserving": 5167,
      "Ġintell": 5168,
      "pered": 5169,
      "pecially": 5170,
      "Ġchair": 5171,
      "ipl": 5172,
      "Ġgentlewoman": 5173,
      "ached": 5174,
      "Ġdescend": 5175,
      "Ġcouple": 5176,
      "ĠNile": 5177,
      "ĠNature": 5178,
      "Ġfever": 5179,
      "Ġsweetest": 5180,
      "Ġslee": 5181,
      "wards": 5182,
      "Ġwitty": 5183,
      "Ġtalks": 5184,
      "Ġputs": 5185,
      "Ġputting": 5186,
      "Ġstaying": 5187,
      "Ġcomplex": 5188,
      "Ġraven": 5189,
      "Ġperhaps": 5190,
      "aph": 5191,
      "Ġplayers": 5192,
      "Ġhark": 5193,
      "Ġreply": 5194,
      "Ġclerk": 5195,
      "Ġmonument": 5196,
      "Ġmonarch": 5197,
      "Ġended": 5198,
      "Ġsometime": 5199,
      "Ġfollowing": 5200,
      "Ġmerit": 5201,
      "Ġbreach": 5202,
      "rantz": 5203,
      "Ġstrang": 5204,
      "Ask": 5205,
      "Ġrestra": 5206,
      "ĠWithout": 5207,
      "ĠHercul": 5208,
      "Ġacts": 5209,
      "Ġcheat": 5210,
      "Ġcharged": 5211,
      "Ġcharms": 5212,
      "izing": 5213,
      "Ġcrab": 5214,
      "Ġaccuse": 5215,
      "Ġaccused": 5216,
      "Ġwalks": 5217,
      "ontent": 5218,
      "Ġeaten": 5219,
      "Ġsooner": 5220,
      "Ġpossibly": 5221,
      "Ġdiscour": 5222,
      "Ġdischar": 5223,
      "Ġnearby": 5224,
      "ĠRosenc": 5225,
      "ĠĠĠ": 5226,
      "Ġlistening": 5227,
      "Ġtroubled": 5228,
      "Shut": 5229,
      "Ġdarkness": 5230,
      "ĠWilliam": 5231,
      "Ġpatiently": 5232,
      "Ġwooing": 5233,
      "Ġwooed": 5234,
      "Ġsilent": 5235,
      "Ġmouths": 5236,
      "Ġfunny": 5237,
      "Ġsafely": 5238,
      "Ġplainly": 5239,
      "Ġabsence": 5240,
      "twill": 5241,
      "Ġtreated": 5242,
      "Ġaffections": 5243,
      "Ġdirection": 5244,
      "Ġhealthy": 5245,
      "Ġprofess": 5246,
      "Ġextrem": 5247,
      "Ġextreme": 5248,
      "Ġmiracle": 5249,
      "Ġobject": 5250,
      "Ġclearly": 5251,
      "Ġbleeding": 5252,
      "Ġmiles": 5253,
      "Ġmilitary": 5254,
      "Ġgarments": 5255,
      "Ġeleven": 5256,
      "Ġestate": 5257,
      "Ġsenate": 5258,
      "Ġwalls": 5259,
      "ĠAlb": 5260,
      "Ġgrandmother": 5261,
      "Ġfatal": 5262,
      "semble": 5263,
      "Ġpolite": 5264,
      "ĠUnless": 5265,
      "ĠEmperor": 5266,
      "Ġobedience": 5267,
      "Ġspells": 5268,
      "Ġbaby": 5269,
      "Ġrisk": 5270,
      "ĠGonz": 5271,
      "Ġstudy": 5272,
      "Ġiron": 5273,
      "Ġtempest": 5274,
      "Ġtorture": 5275,
      "Ġphys": 5276,
      "Ġreverence": 5277,
      "ĠSyrac": 5278,
      "Ġelder": 5279,
      "Ġdefeat": 5280,
      "ĠSpeak": 5281,
      "Ġdestroy": 5282,
      "colm": 5283,
      "ommend": 5284,
      "Friends": 5285,
      "Ġspecial": 5286,
      "Ġcriminal": 5287,
      "Ġaudience": 5288,
      "ntiphol": 5289,
      "Ġreligious": 5290,
      "Ġbachelor": 5291,
      "ĠProspero": 5292,
      "Captain": 5293,
      "Ġcauld": 5294,
      "Ġgossip": 5295,
      "ĠLawrence": 5296,
      "Ġhandwriting": 5297,
      "Ġcomplexion": 5298,
      "ĠHercules": 5299,
      "ĠRosencrantz": 5300,
      "),": 5301,
      "Bl": 5302,
      "Cal": 5303,
      "Eros": 5304,
      "Fort": 5305,
      "Lay": 5306,
      "Mar": 5307,
      "Off": 5308,
      "Ret": 5309,
      "Tut": 5310,
      "Talk": 5311,
      "Villain": 5312,
      "bast": 5313,
      "ded": 5314,
      "eyed": 5315,
      "ford": 5316,
      "father": 5317,
      "give": 5318,
      "hor": 5319,
      "min": 5320,
      "nes": 5321,
      "net": 5322,
      "nian": 5323,
      "pol": 5324,
      "rison": 5325,
      "sp": 5326,
      "su": 5327,
      "te": 5328,
      "ts": 5329,
      "uish": 5330,
      "Ġvers": 5331,
      "Ġeter": 5332,
      "Ġtur": 5333,
      "Ġale": 5334,
      "Ġack": 5335,
      "ourage": 5336,
      "Ġsaint": 5337,
      "Ġsilly": 5338,
      "Ġmain": 5339,
      "Ġmud": 5340,
      "Ġwert": 5341,
      "Ġwaves": 5342,
      "inces": 5343,
      "render": 5344,
      "Ġbull": 5345,
      "Ġbait": 5346,
      "Ġyond": 5347,
      "Ġfen": 5348,
      "Ġfurious": 5349,
      "Ġfrank": 5350,
      "Ġder": 5351,
      "Ġdig": 5352,
      "Ġdirt": 5353,
      "itch": 5354,
      "Ġlen": 5355,
      "Ġcam": 5356,
      "ester": 5357,
      "arse": 5358,
      "Ġheight": 5359,
      "eno": 5360,
      "enance": 5361,
      "Ġpill": 5362,
      "Ġpir": 5363,
      "Ġpig": 5364,
      "Ġpause": 5365,
      "Ġgain": 5366,
      "Ġgru": 5367,
      "Ġgates": 5368,
      "oting": 5369,
      "seed": 5370,
      "utes": 5371,
      "key": 5372,
      "ased": 5373,
      "rike": 5374,
      "rief": 5375,
      "ridge": 5376,
      "alb": 5377,
      "aled": 5378,
      "Ġliqu": 5379,
      "Ġliked": 5380,
      "Ġstat": 5381,
      "Ġdove": 5382,
      "Ġreck": 5383,
      "Ġrenown": 5384,
      "âĢĶâĢĿ": 5385,
      "ĠTubal": 5386,
      "amy": 5387,
      "ament": 5388,
      "run": 5389,
      "Ġshri": 5390,
      "Ġsullen": 5391,
      "Ġspare": 5392,
      "Ġspace": 5393,
      "Ġknowing": 5394,
      "Ġwashed": 5395,
      "Ġhears": 5396,
      "iel": 5397,
      "ĠMetellus": 5398,
      "Ġseeing": 5399,
      "ĠBet": 5400,
      "ĠBoth": 5401,
      "ĠBrab": 5402,
      "Ġju": 5403,
      "Ġjump": 5404,
      "Ġvill": 5405,
      "Ġusur": 5406,
      "ardseed": 5407,
      "Ġaband": 5408,
      "Ġorg": 5409,
      "Nobody": 5410,
      "Ġarran": 5411,
      "ĠFranc": 5412,
      "ĠPut": 5413,
      "ĠPoor": 5414,
      "ĠPindarus": 5415,
      "ĠPublius": 5416,
      "Ġmoving": 5417,
      "ists": 5418,
      "Ġrush": 5419,
      "Ġshoulders": 5420,
      "ĠDeath": 5421,
      "ortunity": 5422,
      "ĠOphelia": 5423,
      "Ġhowl": 5424,
      "Ġboot": 5425,
      "Ġboast": 5426,
      "ickle": 5427,
      "Ġchide": 5428,
      "Ġofficers": 5429,
      "Ġdisapp": 5430,
      "ĠTheir": 5431,
      "Ġserpent": 5432,
      "ĠGratiano": 5433,
      "Ġwrath": 5434,
      "Ġfox": 5435,
      "Ġchase": 5436,
      "Ġflout": 5437,
      "Ġflight": 5438,
      "Ġwomb": 5439,
      "Ġimage": 5440,
      "Ġduel": 5441,
      "Ġsweeter": 5442,
      "Ġkeeping": 5443,
      "Ġrose": 5444,
      "Ġpraying": 5445,
      "Behold": 5446,
      "Ġwarri": 5447,
      "Ġwarlike": 5448,
      "Ġcompan": 5449,
      "Ġslaught": 5450,
      "Ġslip": 5451,
      "Ġappoint": 5452,
      "Ġappeared": 5453,
      "Ġswearing": 5454,
      "Ġharvest": 5455,
      "ertime": 5456,
      "Ġcontempt": 5457,
      "Ġbestow": 5458,
      "Ġbringing": 5459,
      "Ġbrag": 5460,
      "ĠVol": 5461,
      "Ġcountenance": 5462,
      "Ġmothers": 5463,
      "Ġruns": 5464,
      "Ġpride": 5465,
      "Ġmeeting": 5466,
      "Ġremembered": 5467,
      "Ġgotten": 5468,
      "Ġpassing": 5469,
      "Ġbush": 5470,
      "Ġattract": 5471,
      "Ġtricked": 5472,
      "Ġnative": 5473,
      "Ġmurd": 5474,
      "Ġeating": 5475,
      "ĠblessÃ¨d": 5476,
      "Ġweeps": 5477,
      "ĠEdgar": 5478,
      "Ġdancing": 5479,
      "Ġhangs": 5480,
      "Ġsnow": 5481,
      "Ġsnail": 5482,
      "Ġgenerous": 5483,
      "Ġwaters": 5484,
      "Ġcommands": 5485,
      "Ġsubst": 5486,
      "Ġtroubles": 5487,
      "ĠMacmor": 5488,
      "ĠNorway": 5489,
      "Ġclean": 5490,
      "Ġevils": 5491,
      "Ġstarts": 5492,
      "Ġdamnation": 5493,
      "Ġslaves": 5494,
      "Ġrelative": 5495,
      "ĠMarcus": 5496,
      "Ġrefused": 5497,
      "Ġbargain": 5498,
      "Ġcorp": 5499,
      "Ġrespects": 5500,
      "Ġfamili": 5501,
      "Ġcowards": 5502,
      "Ġinflu": 5503,
      "Ġsimply": 5504,
      "Ġdevotion": 5505,
      "Ġcheerful": 5506,
      "Ġsailors": 5507,
      "twixt": 5508,
      "Ġmurderers": 5509,
      "Ġincre": 5510,
      "Ġprophes": 5511,
      "Mean": 5512,
      "Ġapace": 5513,
      "Ġgallop": 5514,
      "Ġdestiny": 5515,
      "Ġproperty": 5516,
      "Ġlegal": 5517,
      "Ġinstruments": 5518,
      "Ġvex": 5519,
      "Ġdrive": 5520,
      "Ġdishon": 5521,
      "Ġdisgust": 5522,
      "Ġelements": 5523,
      "Ġesteem": 5524,
      "ounced": 5525,
      "Ġpunishment": 5526,
      "Ġlimit": 5527,
      "ĠAthenian": 5528,
      "ĠKatherina": 5529,
      "Ġwoeful": 5530,
      "Ġstockings": 5531,
      "Ġpetty": 5532,
      "Ġanimals": 5533,
      "Ġnecessity": 5534,
      "Ġgovernor": 5535,
      "Ġgovernment": 5536,
      "Ġmourn": 5537,
      "Ġmourning": 5538,
      "Ġdetermined": 5539,
      "Ġresolved": 5540,
      "Ġpersuade": 5541,
      "ĠTheseus": 5542,
      "Ġrobbed": 5543,
      "Ġviolent": 5544,
      "Ġfilthy": 5545,
      "Ġbelongs": 5546,
      "Ġsuspicion": 5547,
      "Ġresponsib": 5548,
      "ambio": 5549,
      "ĠMenas": 5550,
      "ĠDuncan": 5551,
      "Ġpreparation": 5552,
      "Ġlodging": 5553,
      "Ġpearl": 5554,
      "Ġhazard": 5555,
      "ĠIras": 5556,
      "Ġwhisper": 5557,
      "ĠCaliban": 5558,
      "Cheer": 5559,
      "Ġsanct": 5560,
      "Ġseveral": 5561,
      "Ġaboard": 5562,
      "ĠEphes": 5563,
      "Ġphilosopher": 5564,
      "Better": 5565,
      "Ġcoxcomb": 5566,
      "Ġbeloved": 5567,
      "Ġhistory": 5568,
      "Ġgoddess": 5569,
      "Ġsuggest": 5570,
      "Ġcauldron": 5571,
      "bastian": 5572,
      "Ġacknow": 5573,
      "ĠBrabant": 5574,
      "ĠMacmorris": 5575,
      "Ġfamiliar": 5576,
      "App": 5577,
      "Bless": 5578,
      "Cons": 5579,
      "Curse": 5580,
      "Cleopatra": 5581,
      "Des": 5582,
      "Down": 5583,
      "Hie": 5584,
      "Kill": 5585,
      "Kind": 5586,
      "Live": 5587,
      "Lie": 5588,
      "Mon": 5589,
      "Mal": 5590,
      "Rep": 5591,
      "Sil": 5592,
      "Sleep": 5593,
      "Turn": 5594,
      "bear": 5595,
      "blo": 5596,
      "boy": 5597,
      "fellow": 5598,
      "gown": 5599,
      "gripp": 5600,
      "horse": 5601,
      "my": 5602,
      "oc": 5603,
      "pen": 5604,
      "sieur": 5605,
      "safe": 5606,
      "uary": 5607,
      "vius": 5608,
      "wixt": 5609,
      "Ġsane": 5610,
      "Ġmass": 5611,
      "Ġwager": 5612,
      "inbr": 5613,
      "reet": 5614,
      "ndello": 5615,
      "Ġbent": 5616,
      "ishes": 5617,
      "Ġyell": 5618,
      "Ġfu": 5619,
      "Ġflock": 5620,
      "Ġfixed": 5621,
      "Ġdun": 5622,
      "Ġdurst": 5623,
      "itation": 5624,
      "itical": 5625,
      "Ġlower": 5626,
      "Ġcave": 5627,
      "Ġtoe": 5628,
      "Ġtoad": 5629,
      "erman": 5630,
      "Ġhorn": 5631,
      "Ġhounds": 5632,
      "Ġhouses": 5633,
      "anks": 5634,
      "Ġthirty": 5635,
      "Ġthorough": 5636,
      "Ġpate": 5637,
      "Ġpage": 5638,
      "Ġgid": 5639,
      "Ġgaze": 5640,
      "omen": 5641,
      "owland": 5642,
      "Ġbelly": 5643,
      "Ġhabit": 5644,
      "Ġinher": 5645,
      "Ġeast": 5646,
      "irmed": 5647,
      "Ġweigh": 5648,
      "ading": 5649,
      "Ġwithdraw": 5650,
      "ids": 5651,
      "Ġlip": 5652,
      "Ġlikes": 5653,
      "Ġrepe": 5654,
      "Ġreach": 5655,
      "Ġsoc": 5656,
      "Ġann": 5657,
      "using": 5658,
      "urance": 5659,
      "Ġdeb": 5660,
      "Ġwhither": 5661,
      "ĠCould": 5662,
      "earer": 5663,
      "roach": 5664,
      "Ġsuper": 5665,
      "thorn": 5666,
      "Ġspit": 5667,
      "Ġsheets": 5668,
      "inkled": 5669,
      "ĠMade": 5670,
      "Ġsirs": 5671,
      "ĠBellario": 5672,
      "ĠSee": 5673,
      "Ġjot": 5674,
      "Ġjerk": 5675,
      "Ġvul": 5676,
      "Ġvice": 5677,
      "Ġvol": 5678,
      "Ġvantage": 5679,
      "Ġusual": 5680,
      "iondello": 5681,
      "Ġworn": 5682,
      "icy": 5683,
      "Ġconvey": 5684,
      "Ġabuse": 5685,
      "Ġblast": 5686,
      "Ġblue": 5687,
      "Ġblush": 5688,
      "Myself": 5689,
      "âĢĿ!": 5690,
      "ĠLond": 5691,
      "ĠFabian": 5692,
      "ĠPl": 5693,
      "ĠPist": 5694,
      "ĠPlease": 5695,
      "Ġpoem": 5696,
      "Ġalas": 5697,
      "Ġroof": 5698,
      "Ġbrook": 5699,
      "ĠEre": 5700,
      "ĠRowland": 5701,
      "Ġunluck": 5702,
      "Ġquoth": 5703,
      "uno": 5704,
      "unch": 5705,
      "Ġboard": 5706,
      "Ġhated": 5707,
      "Ġhatred": 5708,
      "Ġheartily": 5709,
      "Ġchid": 5710,
      "Ġofficer": 5711,
      "Ġmayor": 5712,
      "Ġmaybe": 5713,
      "Ġnightgown": 5714,
      "Ġcouldst": 5715,
      "Ġdisdain": 5716,
      "Ġleather": 5717,
      "Ġwanton": 5718,
      "Ġserves": 5719,
      "ĠGree": 5720,
      "love": 5721,
      "Ġrules": 5722,
      "Ġnewly": 5723,
      "acles": 5724,
      "Ġdukes": 5725,
      "Ġfinds": 5726,
      "Ġbegg": 5727,
      "Ġoverwhe": 5728,
      "Ġscratch": 5729,
      "ĠThomas": 5730,
      "Beware": 5731,
      "Ġslight": 5732,
      "Ġrap": 5733,
      "Ġraw": 5734,
      "Ġraging": 5735,
      "Ġpeers": 5736,
      "Ġpeev": 5737,
      "Ġapple": 5738,
      "Ġremove": 5739,
      "Ġsleepy": 5740,
      "Ġbeds": 5741,
      "Ġthankful": 5742,
      "Ġasks": 5743,
      "Ġclown": 5744,
      "Ġcliff": 5745,
      "Ġmonsieur": 5746,
      "Ġends": 5747,
      "Ġjoint": 5748,
      "Ġjoined": 5749,
      "Ġfights": 5750,
      "Ġbelow": 5751,
      "ension": 5752,
      "ensive": 5753,
      "Ġhollow": 5754,
      "Ġworks": 5755,
      "Ġtrain": 5756,
      "Ġimprison": 5757,
      "Ġfalling": 5758,
      "Ġchest": 5759,
      "Ġprick": 5760,
      "Ġassist": 5761,
      "Ġpair": 5762,
      "Ġthousands": 5763,
      "Ġcurs": 5764,
      "Ġcurses": 5765,
      "Ġwindows": 5766,
      "Ġstrangely": 5767,
      "Ġpromises": 5768,
      "Ġaccording": 5769,
      "Ġtrial": 5770,
      "ĠUrs": 5771,
      "Ġcourtier": 5772,
      "Ġcourteous": 5773,
      "Ġcoff": 5774,
      "Ġdreamed": 5775,
      "Ġdiscipl": 5776,
      "Ġlanded": 5777,
      "Ġbreaks": 5778,
      "Ġbreathing": 5779,
      "Ġbanqu": 5780,
      "Ġgrowing": 5781,
      "Ġhanging": 5782,
      "Ġbids": 5783,
      "Ġdefense": 5784,
      "Ġbeating": 5785,
      "Ġterrif": 5786,
      "Ġskull": 5787,
      "Ġhairs": 5788,
      "Twill": 5789,
      "Ġrevenged": 5790,
      "Ġstarting": 5791,
      "Ġpoints": 5792,
      "Ġsurvive": 5793,
      "Ġsurrender": 5794,
      "Ġmaids": 5795,
      "ĠWherein": 5796,
      "Ġgirls": 5797,
      "Ġsatisfy": 5798,
      "Ġvision": 5799,
      "Ġprisoners": 5800,
      "Ġapprove": 5801,
      "Ġeasier": 5802,
      "Ġconduct": 5803,
      "Ġcarrying": 5804,
      "Ġpunished": 5805,
      "Ġchallenged": 5806,
      "Ġbigger": 5807,
      "Ġsails": 5808,
      "Ġarrive": 5809,
      "Ġopportunity": 5810,
      "Ġconstable": 5811,
      "ĠJulius": 5812,
      "Ġdirectly": 5813,
      "Ġsoftly": 5814,
      "Ġfortunate": 5815,
      "Ġsuffering": 5816,
      "Ġextra": 5817,
      "Ġenterprise": 5818,
      "Ġescaped": 5819,
      "Ġespecially": 5820,
      "chers": 5821,
      "Ġregard": 5822,
      "Ġcruelty": 5823,
      "Ġquarrels": 5824,
      "Ġobvious": 5825,
      "Ġmerciful": 5826,
      "Ġinstrument": 5827,
      "Exc": 5828,
      "Ġhiding": 5829,
      "Ġgrieve": 5830,
      "ratitude": 5831,
      "Ġdriven": 5832,
      "Ġdishonor": 5833,
      "Ġlamb": 5834,
      "Ġangels": 5835,
      "Cassius": 5836,
      "Ġurge": 5837,
      "Ġconquer": 5838,
      "Ġconquest": 5839,
      "Ġhostess": 5840,
      "Ġperfectly": 5841,
      "Ġfierce": 5842,
      "Ġwrestler": 5843,
      "Ġdetermine": 5844,
      "ĠAlexas": 5845,
      "ĠAlexander": 5846,
      "Ġfares": 5847,
      "Ġarrested": 5848,
      "Ġsalute": 5849,
      "Ġseparate": 5850,
      "Sometimes": 5851,
      "Play": 5852,
      "Ġdemands": 5853,
      "Ġimperial": 5854,
      "Ġtreachery": 5855,
      "Ġtreacherous": 5856,
      "Ġsauce": 5857,
      "rateful": 5858,
      "Ġlazy": 5859,
      "About": 5860,
      "Ġnuncle": 5861,
      "Ġearnest": 5862,
      "Ġacquaintance": 5863,
      "Ġfairest": 5864,
      "Ġtyranny": 5865,
      "Ġdegree": 5866,
      "Ġcouncil": 5867,
      "Ġeffort": 5868,
      "Ġdiscourse": 5869,
      "ĠAlbany": 5870,
      "ĠGonzalo": 5871,
      "ntipholus": 5872,
      "Ġabandon": 5873,
      "Ġslaughtered": 5874,
      "Ġinfluence": 5875,
      "ĠEphesus": 5876,
      "grippa": 5877,
      "inbras": 5878,
      "ĠLondon": 5879,
      "ĠPistol": 5880,
      "Ġpeevish": 5881,
      "Act": 5882,
      "Abs": 5883,
      "Dead": 5884,
      "Demetrius": 5885,
      "Dromio": 5886,
      "Fly": 5887,
      "Fore": 5888,
      "Gra": 5889,
      "Lysander": 5890,
      "Meet": 5891,
      "Music": 5892,
      "Nurse": 5893,
      "Pay": 5894,
      "Peter": 5895,
      "Portia": 5896,
      "Sm": 5897,
      "Sad": 5898,
      "Saw": 5899,
      "Tre": 5900,
      "Tranio": 5901,
      "Under": 5902,
      "af": 5903,
      "aver": 5904,
      "cÃ¨d": 5905,
      "ey": 5906,
      "ere": 5907,
      "fret": 5908,
      "faced": 5909,
      "gn": 5910,
      "gle": 5911,
      "ggs": 5912,
      "gues": 5913,
      "lers": 5914,
      "lasting": 5915,
      "master": 5916,
      "oe": 5917,
      "oll": 5918,
      "oes": 5919,
      "round": 5920,
      "rato": 5921,
      "she": 5922,
      "tha": 5923,
      "tled": 5924,
      "uable": 5925,
      "vail": 5926,
      "wing": 5927,
      "ym": 5928,
      "Ġign": 5929,
      "Ġtut": 5930,
      "Ġtas": 5931,
      "Ġtard": 5932,
      "Ġtents": 5933,
      "Ġast": 5934,
      "ouble": 5935,
      "Ġsed": 5936,
      "Ġmouse": 5937,
      "Ġwest": 5938,
      "Ġwond": 5939,
      "Ġwolves": 5940,
      "inate": 5941,
      "rees": 5942,
      "hast": 5943,
      "hael": 5944,
      "Ġbrown": 5945,
      "Ġbud": 5946,
      "Ġbuck": 5947,
      "isbury": 5948,
      "veling": 5949,
      "Ġfake": 5950,
      "Ġflo": 5951,
      "Ġfires": 5952,
      "Ġdim": 5953,
      "Ġlame": 5954,
      "Ġloose": 5955,
      "Ġlaughter": 5956,
      "Ġcook": 5957,
      "Ġcash": 5958,
      "Ġcured": 5959,
      "Ġny": 5960,
      "Ġnonsense": 5961,
      "Ġhind": 5962,
      "Ġoak": 5963,
      "arm": 5964,
      "arius": 5965,
      "Ġthin": 5966,
      "Ġthrive": 5967,
      "Ġpine": 5968,
      "Ġgn": 5969,
      "Ġgames": 5970,
      "omy": 5971,
      "edon": 5972,
      "ednes": 5973,
      "Ġbeware": 5974,
      "otions": 5975,
      "stain": 5976,
      "atient": 5977,
      "attered": 5978,
      "Ġmeas": 5979,
      "Ġinch": 5980,
      "imble": 5981,
      "cellus": 5982,
      "Ġeggs": 5983,
      "irand": 5984,
      "Ġforced": 5985,
      "ribly": 5986,
      "alter": 5987,
      "Ġlift": 5988,
      "Ġliken": 5989,
      "Ġstore": 5990,
      "Ġstub": 5991,
      "Ġstamp": 5992,
      "Ġstaff": 5993,
      "entaur": 5994,
      "ĠAfter": 5995,
      "ĠAgrippa": 5996,
      "usions": 5997,
      "Ġwhilst": 5998,
      "ĠTake": 5999,
      "ĠTiber": 6000,
      "ĠCicero": 6001,
      "ĠCentaur": 6002,
      "tery": 6003,
      "Ġknot": 6004,
      "rude": 6005,
      "Ġshine": 6006,
      "Ġshop": 6007,
      "Ġshock": 6008,
      "Ġbutt": 6009,
      "Ġsphe": 6010,
      "Ġsple": 6011,
      "Ġspake": 6012,
      "Ġwheel": 6013,
      "iev": 6014,
      "ĠMight": 6015,
      "ĠMost": 6016,
      "Ġamends": 6017,
      "venient": 6018,
      "Ġmoreover": 6019,
      "ĠSard": 6020,
      "ula": 6021,
      "uls": 6022,
      "Ġswell": 6023,
      "icult": 6024,
      "ichael": 6025,
      "Ġconver": 6026,
      "Ġconceive": 6027,
      "Ġconsequ": 6028,
      "Ġconference": 6029,
      "Ġlets": 6030,
      "Ġanywhere": 6031,
      "elsh": 6032,
      "Noble": 6033,
      "Ġargue": 6034,
      "ĠLig": 6035,
      "ĠPer": 6036,
      "Ġmoves": 6037,
      "Ġmoder": 6038,
      "Ġalike": 6039,
      "Ġrouse": 6040,
      "Ġsomewhere": 6041,
      "igent": 6042,
      "Ġunus": 6043,
      "Ġunfortun": 6044,
      "Ġhowever": 6045,
      "unis": 6046,
      "Ġrip": 6047,
      "Ġbetimes": 6048,
      "ĠWalter": 6049,
      "ĠWelsh": 6050,
      "Ġtwain": 6051,
      "Ġdisord": 6052,
      "Ġleeks": 6053,
      "Sold": 6054,
      "Ġleap": 6055,
      "Ġjustly": 6056,
      "ĠGeno": 6057,
      "Ġheav": 6058,
      "idered": 6059,
      "Ġflag": 6060,
      "bert": 6061,
      "Ġrum": 6062,
      "ssom": 6063,
      "aches": 6064,
      "Ġgraces": 6065,
      "Ġcouch": 6066,
      "Ġadvers": 6067,
      "ĠNay": 6068,
      "osity": 6069,
      "Ġsweetly": 6070,
      "Ġhappily": 6071,
      "Ġbegu": 6072,
      "Ġbeginning": 6073,
      "Ġroar": 6074,
      "Ġroot": 6075,
      "Ġrock": 6076,
      "Ġhousehold": 6077,
      "Ġoverth": 6078,
      "bler": 6079,
      "Ġscre": 6080,
      "Ġperformed": 6081,
      "Ġperchance": 6082,
      "Ġremind": 6083,
      "Ġremedy": 6084,
      "Ġswears": 6085,
      "Ġreasonable": 6086,
      "Ġacross": 6087,
      "Ġartic": 6088,
      "Ġthanked": 6089,
      "Ġrepres": 6090,
      "Ġclam": 6091,
      "Ġanswers": 6092,
      "Ġturning": 6093,
      "Ġbravery": 6094,
      "Ġbearing": 6095,
      "Strike": 6096,
      "Ġresc": 6097,
      "Ġhorror": 6098,
      "Ġmistaken": 6099,
      "Ġbeauteous": 6100,
      "ĠWithin": 6101,
      "Ġfeels": 6102,
      "there": 6103,
      "Ġactor": 6104,
      "Ġfallen": 6105,
      "Ġpriests": 6106,
      "ĠLordship": 6107,
      "Ġhumili": 6108,
      "Ġinsul": 6109,
      "Ġcharitable": 6110,
      "Ġwolf": 6111,
      "ountain": 6112,
      "Ġpassage": 6113,
      "Ġemperor": 6114,
      "Ġlights": 6115,
      "Ġforeign": 6116,
      "Ġholding": 6117,
      "Ġaccess": 6118,
      "Ġtriump": 6119,
      "Ġdreamt": 6120,
      "Ġdreaming": 6121,
      "Ġcloset": 6122,
      "Ġpleasing": 6123,
      "Ġkissing": 6124,
      "uced": 6125,
      "Ġsits": 6126,
      "Ġlawful": 6127,
      "Ġnearly": 6128,
      "Ġvaluable": 6129,
      "Ġbreathe": 6130,
      "Ġreturns": 6131,
      "Ġbeside": 6132,
      "Ġpersonal": 6133,
      "Ġsoundly": 6134,
      "Ġcountryman": 6135,
      "Ġspoil": 6136,
      "Ġspoiled": 6137,
      "Ġleading": 6138,
      "Ġcritic": 6139,
      "Ġexped": 6140,
      "ĠStand": 6141,
      "ivity": 6142,
      "mph": 6143,
      "ĠMacedon": 6144,
      "Ġcarries": 6145,
      "Shylock": 6146,
      "Someone": 6147,
      "ĠChurch": 6148,
      "Ġlearning": 6149,
      "Ġlately": 6150,
      "Happy": 6151,
      "Ġsurpr": 6152,
      "Ġdepends": 6153,
      "ĠMarcellus": 6154,
      "web": 6155,
      "Ġbarber": 6156,
      "Ġbarren": 6157,
      "Ġbarbar": 6158,
      "Ġcorre": 6159,
      "Ġdrunkard": 6160,
      "Ġdeeply": 6161,
      "Ġunderstanding": 6162,
      "Ġflatte": 6163,
      "Ġforgiveness": 6164,
      "while": 6165,
      "Ġoaths": 6166,
      "Ġcontented": 6167,
      "Ġinvited": 6168,
      "Ġdevice": 6169,
      "Ġdevise": 6170,
      "ĠPomfret": 6171,
      "Ġinterrupt": 6172,
      "Ġinnoc": 6173,
      "Ġlusty": 6174,
      "Ġschol": 6175,
      "Ġdivision": 6176,
      "Ġmirror": 6177,
      "ipping": 6178,
      "Ġwickedness": 6179,
      "Ġregret": 6180,
      "Unless": 6181,
      "Uncle": 6182,
      "Ġpossession": 6183,
      "Ġundo": 6184,
      "Ġmilk": 6185,
      "Ġmissing": 6186,
      "Ġmissed": 6187,
      "omsday": 6188,
      "Ġunpro": 6189,
      "olutely": 6190,
      "Ġridicul": 6191,
      "Ġframe": 6192,
      "Ġflattering": 6193,
      "easeblo": 6194,
      "Ġtrumpets": 6195,
      "Ġgrandam": 6196,
      "Ġvictorious": 6197,
      "Anyway": 6198,
      "aithful": 6199,
      "Ġrebels": 6200,
      "bbing": 6201,
      "Ġnaughty": 6202,
      "Ġpetition": 6203,
      "Ġceremon": 6204,
      "Ġmask": 6205,
      "ĠMustardseed": 6206,
      "ĠFortinbras": 6207,
      "obweb": 6208,
      "Ġstuffed": 6209,
      "Ġresolution": 6210,
      "Ġcontinue": 6211,
      "Ġentertainment": 6212,
      "Ġexperience": 6213,
      "Ġinjury": 6214,
      "Ġseparated": 6215,
      "Ġmarvelous": 6216,
      "Ready": 6217,
      "Something": 6218,
      "Ġobserv": 6219,
      "Ġconjure": 6220,
      "Ġprovoke": 6221,
      "Ġbabes": 6222,
      "Ġvenge": 6223,
      "Ġcircumstance": 6224,
      "Ġmalice": 6225,
      "Ġperforce": 6226,
      "Ġperforman": 6227,
      "Ġpoetry": 6228,
      "Ġengaged": 6229,
      "Ġmerely": 6230,
      "ĠEarl": 6231,
      "Ġstolen": 6232,
      "Ġchooses": 6233,
      "Ġaccomplish": 6234,
      "ĠQuince": 6235,
      "Ġcorner": 6236,
      "Ġprosper": 6237,
      "Ġcontrary": 6238,
      "ienced": 6239,
      "Ġhigher": 6240,
      "ĠSalisbury": 6241,
      "hasar": 6242,
      "Ġbounty": 6243,
      "Ġdistracted": 6244,
      "Ġambassadors": 6245,
      "bonius": 6246,
      "Ġmaintain": 6247,
      "ĠBalthasar": 6248,
      "umnius": 6249,
      "Ġappetite": 6250,
      "Ġdifficult": 6251,
      "Ġcabin": 6252,
      "Ġconversation": 6253,
      "Ġeternal": 6254,
      "albain": 6255,
      "ĠFrancis": 6256,
      "ĠVolumnius": 6257,
      "Meanwhile": 6258,
      "Ġresponsibility": 6259,
      "Ġinherit": 6260,
      "ĠUrsula": 6261,
      "Ġbanquet": 6262,
      "Excuse": 6263,
      "Absolutely": 6264,
      "ednesday": 6265,
      "iranda": 6266,
      "Ġlikeness": 6267,
      "Ġstubborn": 6268,
      "ĠLigarius": 6269,
      "ĠGenoa": 6270,
      "easeblossom": 6271,
      "Boy": 6272,
      "Banquo": 6273,
      "Ch": 6274,
      "Carry": 6275,
      "Certain": 6276,
      "Cesario": 6277,
      "Fulvia": 6278,
      "Hortensio": 6279,
      "Le": 6280,
      "Merc": 6281,
      "Name": 6282,
      "Octav": 6283,
      "Othello": 6284,
      "Prepare": 6285,
      "Ratcliffe": 6286,
      "Sc": 6287,
      "avery": 6288,
      "bers": 6289,
      "eople": 6290,
      "fri": 6291,
      "gon": 6292,
      "gor": 6293,
      "ghan": 6294,
      "groom": 6295,
      "hore": 6296,
      "iate": 6297,
      "iable": 6298,
      "lter": 6299,
      "met": 6300,
      "na": 6301,
      "nard": 6302,
      "ole": 6303,
      "rot": 6304,
      "rass": 6305,
      "rade": 6306,
      "same": 6307,
      "ups": 6308,
      "wit": 6309,
      "yet": 6310,
      "your": 6311,
      "Ġice": 6312,
      "Ġves": 6313,
      "Ġtea": 6314,
      "Ġtie": 6315,
      "hend": 6316,
      "Ġsought": 6317,
      "Ġming": 6318,
      "Ġmill": 6319,
      "Ġwore": 6320,
      "Ġwand": 6321,
      "Ġwail": 6322,
      "Ġwakes": 6323,
      "reg": 6324,
      "âĢ¦": 6325,
      "âĢĵ": 6326,
      "Ġbaw": 6327,
      "Ġbail": 6328,
      "isa": 6329,
      "isons": 6330,
      "Ġyoke": 6331,
      "Ġfif": 6332,
      "Ġfits": 6333,
      "Ġdote": 6334,
      "Ġdawn": 6335,
      "itio": 6336,
      "itimate": 6337,
      "Ġlaces": 6338,
      "Ġcal": 6339,
      "Ġcue": 6340,
      "Ġcens": 6341,
      "Ġcale": 6342,
      "Ġtoss": 6343,
      "ergy": 6344,
      "Ġnet": 6345,
      "Ġox": 6346,
      "Ġomen": 6347,
      "ancy": 6348,
      "ena": 6349,
      "Ġthrown": 6350,
      "Ġthumb": 6351,
      "Ġpil": 6352,
      "Ġpite": 6353,
      "Ġpomp": 6354,
      "Ġpipe": 6355,
      "Ġga": 6356,
      "otha": 6357,
      "ator": 6358,
      "atched": 6359,
      "Ġhay": 6360,
      "Ġinn": 6361,
      "Ġinform": 6362,
      "Ġinformed": 6363,
      "leance": 6364,
      "ayed": 6365,
      "ldom": 6366,
      "imb": 6367,
      "iments": 6368,
      "Ġease": 6369,
      "Ġelo": 6370,
      "Ġeager": 6371,
      "ills": 6372,
      "cho": 6373,
      "rian": 6374,
      "Ġashore": 6375,
      "alent": 6376,
      "Ġsty": 6377,
      "Ġstake": 6378,
      "Ġstum": 6379,
      "Ġstool": 6380,
      "Ġstuck": 6381,
      "Ġsteep": 6382,
      "Ġstained": 6383,
      "Ġdoomsday": 6384,
      "Ġrelease": 6385,
      "Ġrevere": 6386,
      "ĠArab": 6387,
      "urvy": 6388,
      "ursed": 6389,
      "ĠToo": 6390,
      "ĠTell": 6391,
      "Ġherbs": 6392,
      "Ġload": 6393,
      "Ġlogs": 6394,
      "Ġlosing": 6395,
      "ĠCato": 6396,
      "earest": 6397,
      "iles": 6398,
      "Ġnobles": 6399,
      "rog": 6400,
      "rove": 6401,
      "Ġshield": 6402,
      "geons": 6403,
      "Ġsustain": 6404,
      "aughan": 6405,
      "Ġspurn": 6406,
      "Ġspark": 6407,
      "Ġspee": 6408,
      "Ġupb": 6409,
      "Ġsayst": 6410,
      "ĠMistress": 6411,
      "ender": 6412,
      "ending": 6413,
      "Ġseeks": 6414,
      "ques": 6415,
      "ĠBiondello": 6416,
      "ĠSat": 6417,
      "ĠSly": 6418,
      "ĠSave": 6419,
      "Ġvault": 6420,
      "Ġoutrage": 6421,
      "Things": 6422,
      "ulous": 6423,
      "ulation": 6424,
      "Ġswall": 6425,
      "arer": 6426,
      "Ġabide": 6427,
      "Ġarrant": 6428,
      "Ġarrows": 6429,
      "ĠLitio": 6430,
      "ĠFool": 6431,
      "ĠFleance": 6432,
      "Ġplants": 6433,
      "Ġwhenever": 6434,
      "ĠPol": 6435,
      "isted": 6436,
      "Ġmadmen": 6437,
      "Ġsomehow": 6438,
      "Ġbran": 6439,
      "ĠDanish": 6440,
      "ĠDolabella": 6441,
      "ĠDorset": 6442,
      "ĠDecius": 6443,
      "ĠRivers": 6444,
      "ĠOne": 6445,
      "Ġunivers": 6446,
      "ption": 6447,
      "Ġexile": 6448,
      "Ġenra": 6449,
      "Ġenvy": 6450,
      "Ġenvious": 6451,
      "Ġmarble": 6452,
      "Ġhandle": 6453,
      "ĠCawd": 6454,
      "agen": 6455,
      "agger": 6456,
      "agues": 6457,
      "Ġchol": 6458,
      "Ġnighting": 6459,
      "Ġproved": 6460,
      "ĠWednesday": 6461,
      "Whose": 6462,
      "ĠGerman": 6463,
      "Ġwrought": 6464,
      "Ġwrinkled": 6465,
      "Ġfoe": 6466,
      "Ġfog": 6467,
      "Ġfoes": 6468,
      "Ġwherein": 6469,
      "Ġbecame": 6470,
      "Ġotherwise": 6471,
      "acob": 6472,
      "Ġgrab": 6473,
      "Ġtrad": 6474,
      "Ġfeign": 6475,
      "Ġbackward": 6476,
      "oses": 6477,
      "osing": 6478,
      "ĠJust": 6479,
      "ĠJup": 6480,
      "ĠJuno": 6481,
      "Ġhappier": 6482,
      "Ġprefer": 6483,
      "Ġwitches": 6484,
      "Ġkinds": 6485,
      "Ġcompet": 6486,
      "Ġcompared": 6487,
      "Ġrail": 6488,
      "Ġperp": 6489,
      "Ġcontain": 6490,
      "Ġcontem": 6491,
      "Ġcontents": 6492,
      "Ġbestowed": 6493,
      "Ġarmies": 6494,
      "Ġcloud": 6495,
      "Ġneeded": 6496,
      "Ġbrand": 6497,
      "Ġlively": 6498,
      "Ġbelief": 6499,
      "Today": 6500,
      "mede": 6501,
      "Ġentra": 6502,
      "Ġentrance": 6503,
      "Ġcares": 6504,
      "Ġconsidered": 6505,
      "Ġrestore": 6506,
      "ĠVaughan": 6507,
      "Ġtraged": 6508,
      "then": 6509,
      "Ġacted": 6510,
      "Ġconfused": 6511,
      "Ġconfusion": 6512,
      "Ġchances": 6513,
      "unday": 6514,
      "bted": 6515,
      "Ġhumans": 6516,
      "Ġinsol": 6517,
      "Ġemotions": 6518,
      "Ġcrave": 6519,
      "Ġpursue": 6520,
      "Ġdoublet": 6521,
      "Another": 6522,
      "anymede": 6523,
      "Ġbridge": 6524,
      "Ġmarrying": 6525,
      "Ġcloak": 6526,
      "Orlando": 6527,
      "Ġdiscover": 6528,
      "Ġkisses": 6529,
      "Ġkissed": 6530,
      "Ġbreaking": 6531,
      "Ġthroughout": 6532,
      "Ġwatching": 6533,
      "Ġfarm": 6534,
      "Ġgrat": 6535,
      "Ġshipw": 6536,
      "Ġdispose": 6537,
      "Ġsneak": 6538,
      "Ġmischief": 6539,
      "Ġbattles": 6540,
      "venture": 6541,
      "Ġlesser": 6542,
      "Ġdares": 6543,
      "Ġstops": 6544,
      "Ġmoonlight": 6545,
      "Ġdefy": 6546,
      "Ġexplo": 6547,
      "Ġterror": 6548,
      "mpet": 6549,
      "Ġsights": 6550,
      "Ġstrikes": 6551,
      "Ġquietly": 6552,
      "Ġmetal": 6553,
      "Ġmettle": 6554,
      "Twere": 6555,
      "Ġairy": 6556,
      "ĠVenus": 6557,
      "Ġmarked": 6558,
      "Ġseeming": 6559,
      "Ġfalsely": 6560,
      "Ġrelatives": 6561,
      "Ġdropped": 6562,
      "Ġcoron": 6563,
      "Ġsuffic": 6564,
      "Ġconfessed": 6565,
      "Ġsuitor": 6566,
      "Ġsuitors": 6567,
      "Wasn": 6568,
      "Ġfavors": 6569,
      "Ġinfinite": 6570,
      "Ġmocking": 6571,
      "Ġsenseless": 6572,
      "Ġwriting": 6573,
      "Ġclosely": 6574,
      "Ġappearance": 6575,
      "Ġwretches": 6576,
      "Ġreports": 6577,
      "Ġafford": 6578,
      "Ġkingdoms": 6579,
      "Ġgranted": 6580,
      "Ġselfsame": 6581,
      "Ġdivided": 6582,
      "Ġtouching": 6583,
      "Ġfinish": 6584,
      "ĠMalcolm": 6585,
      "Ġdestruction": 6586,
      "Ġstrugg": 6587,
      "Ġregards": 6588,
      "ĠâĢĥâĢĥ": 6589,
      "Ġneighbors": 6590,
      "Ġblowing": 6591,
      "Ġgrove": 6592,
      "Ġgroans": 6593,
      "Ġoccup": 6594,
      "Ġindign": 6595,
      "Ġgrieving": 6596,
      "Ġrealize": 6597,
      "Ġsensible": 6598,
      "Ġerrand": 6599,
      "Ġbeasts": 6600,
      "Ġshoe": 6601,
      "Belike": 6602,
      "Ġfrighten": 6603,
      "Ġfrightened": 6604,
      "Ġlimbs": 6605,
      "Ġpitiful": 6606,
      "ĠMessina": 6607,
      "Ġinstantly": 6608,
      "Ġpublicly": 6609,
      "sinane": 6610,
      "Ġrespond": 6611,
      "Ġeffects": 6612,
      "Ġnecessary": 6613,
      "Ġwrestling": 6614,
      "Ġbald": 6615,
      "ĠSebastian": 6616,
      "Ġconcern": 6617,
      "Ġprovide": 6618,
      "Ġprovided": 6619,
      "Ġstrokes": 6620,
      "Ġconvin": 6621,
      "Ġconvince": 6622,
      "Ġdisguised": 6623,
      "Ġedge": 6624,
      "Ġeduc": 6625,
      "Ġempire": 6626,
      "Ġunkindness": 6627,
      "Ġmutiny": 6628,
      "Ġviolence": 6629,
      "Ġvenom": 6630,
      "Ġignorant": 6631,
      "ĠSycor": 6632,
      "Ġcircumstances": 6633,
      "Ġcreep": 6634,
      "Ġeldest": 6635,
      "Ġhunger": 6636,
      "Ġresponsible": 6637,
      "ĠDunsinane": 6638,
      "Ġcarriages": 6639,
      "Ġcelebrate": 6640,
      "Ġbothering": 6641,
      "ĠEarth": 6642,
      "Ġingratitude": 6643,
      "Ġtotal": 6644,
      "Ġpinch": 6645,
      "Lucius": 6646,
      "Ġtarget": 6647,
      "Ġfantasy": 6648,
      "ĠCorin": 6649,
      "ĠBarb": 6650,
      "Ġbenefit": 6651,
      "Ġfrost": 6652,
      "Ġforsworn": 6653,
      "ĠSilvius": 6654,
      "Ġopposite": 6655,
      "Ġsacrifice": 6656,
      "Ġpotent": 6657,
      "Ġrhyme": 6658,
      "Ġinterpret": 6659,
      "Ġemploy": 6660,
      "craft": 6661,
      "looking": 6662,
      "Ġrehearse": 6663,
      "Ġsplit": 6664,
      "Ġpronounced": 6665,
      "Ġdischarge": 6666,
      "Ġphysic": 6667,
      "ĠSyracus": 6668,
      "Calphurnia": 6669,
      "Fortune": 6670,
      "Ġverses": 6671,
      "Ġdigest": 6672,
      "Ġleng": 6673,
      "Ġliquor": 6674,
      "Ġjuice": 6675,
      "Ġmurders": 6676,
      "Ġcorpse": 6677,
      "Ġacknowledge": 6678,
      "Monster": 6679,
      "Ġgiddy": 6680,
      "Ġvulgar": 6681,
      "Actually": 6682,
      "Ġtardy": 6683,
      "Ġnymph": 6684,
      "Ġridiculous": 6685,
      "Ġvessel": 6686,
      "Ġcalend": 6687,
      "Ġeloqu": 6688,
      "Ġspeeches": 6689,
      "ĠCawdor": 6690,
      "ĠJupiter": 6691,
      "ĠSycorax": 6692,
      "Against": 6693,
      "Bad": 6694,
      "Benedick": 6695,
      "Cous": 6696,
      "Calm": 6697,
      "Ever": 6698,
      "Fetch": 6699,
      "Hamlet": 6700,
      "Kent": 6701,
      "Light": 6702,
      "Lend": 6703,
      "Old": 6704,
      "Other": 6705,
      "Ride": 6706,
      "Rosal": 6707,
      "Save": 6708,
      "Serv": 6709,
      "Tie": 6710,
      "Tarry": 6711,
      "Trinculo": 6712,
      "Use": 6713,
      "Won": 6714,
      "Wor": 6715,
      "bes": 6716,
      "banish": 6717,
      "car": 6718,
      "cock": 6719,
      "cross": 6720,
      "fl": 6721,
      "face": 6722,
      "gÃ¨d": 6723,
      "ialt": 6724,
      "ket": 6725,
      "la": 6726,
      "life": 6727,
      "mont": 6728,
      "nis": 6729,
      "oot": 6730,
      "oved": 6731,
      "opped": 6732,
      "ogue": 6733,
      "pit": 6734,
      "port": 6735,
      "rough": 6736,
      "seth": 6737,
      "scape": 6738,
      "will": 6739,
      "yes": 6740,
      "§on": 6741,
      "Ã§on": 6742,
      "ĠâĢĶ": 6743,
      "ĠYes": 6744,
      "Ġtun": 6745,
      "Ġtide": 6746,
      "Ġtaunt": 6747,
      "hess": 6748,
      "Ġav": 6749,
      "Ġape": 6750,
      "Ġaunt": 6751,
      "oured": 6752,
      "Ġmast": 6753,
      "Ġmort": 6754,
      "Ġwet": 6755,
      "Ġward": 6756,
      "Ġwreat": 6757,
      "Ġwither": 6758,
      "Ġwaked": 6759,
      "Ġwreck": 6760,
      "ination": 6761,
      "incent": 6762,
      "inola": 6763,
      "reland": 6764,
      "Ġbru": 6765,
      "Ġbul": 6766,
      "Ġbounds": 6767,
      "vered": 6768,
      "Ġfem": 6769,
      "Ġfountain": 6770,
      "Ġdain": 6771,
      "Ġdrows": 6772,
      "Ġduring": 6773,
      "Ġditch": 6774,
      "itus": 6775,
      "itate": 6776,
      "Ġlent": 6777,
      "Ġcows": 6778,
      "Ġcease": 6779,
      "Ġcudge": 6780,
      "Ġtoy": 6781,
      "erg": 6782,
      "eric": 6783,
      "erving": 6784,
      "Ġnap": 6785,
      "Ġnails": 6786,
      "Ġhom": 6787,
      "Ġhie": 6788,
      "ĠIreland": 6789,
      "Ġokay": 6790,
      "Ġheel": 6791,
      "anity": 6792,
      "anced": 6793,
      "aniel": 6794,
      "envolio": 6795,
      "Ġthw": 6796,
      "Ġthorn": 6797,
      "Ġpace": 6798,
      "Ġpatch": 6799,
      "Ġgore": 6800,
      "Ġgame": 6801,
      "Ġgull": 6802,
      "Ġgild": 6803,
      "Ġgait": 6804,
      "Ġgray": 6805,
      "edro": 6806,
      "Ġbefall": 6807,
      "othered": 6808,
      "athe": 6809,
      "atory": 6810,
      "atures": 6811,
      "Ġhall": 6812,
      "Ġhaply": 6813,
      "see": 6814,
      "keep": 6815,
      "keys": 6816,
      "Ġeun": 6817,
      "illius": 6818,
      "Ġforms": 6819,
      "Ġwease": 6820,
      "Ġweird": 6821,
      "ases": 6822,
      "Ġkid": 6823,
      "Ġkick": 6824,
      "aling": 6825,
      "Ġliars": 6826,
      "Ġstare": 6827,
      "Ġstray": 6828,
      "Ġstern": 6829,
      "Ġdoom": 6830,
      "Ġrein": 6831,
      "Ġrend": 6832,
      "ĠAlen": 6833,
      "ĠAcc": 6834,
      "rase": 6835,
      "Ġanx": 6836,
      "ourn": 6837,
      "ourt": 6838,
      "urous": 6839,
      "Ġdeer": 6840,
      "ĠTouch": 6841,
      "ĠTunis": 6842,
      "Ġseas": 6843,
      "Ġloses": 6844,
      "Ġlocks": 6845,
      "ĠCom": 6846,
      "ĠCur": 6847,
      "ĠCobweb": 6848,
      "eav": 6849,
      "Ġknit": 6850,
      "Ġallowed": 6851,
      "Ġalliance": 6852,
      "ilies": 6853,
      "Ġmanhood": 6854,
      "Ġshining": 6855,
      "geus": 6856,
      "Ġsubs": 6857,
      "antial": 6858,
      "aul": 6859,
      "Ġbutche": 6860,
      "Ġspr": 6861,
      "asted": 6862,
      "Ġsayest": 6863,
      "Ġherein": 6864,
      "ĠMiranda": 6865,
      "ĠMinola": 6866,
      "ended": 6867,
      "Ġamiss": 6868,
      "Ġamount": 6869,
      "venge": 6870,
      "quis": 6871,
      "ĠBea": 6872,
      "ĠSix": 6873,
      "Ġjester": 6874,
      "Ġusually": 6875,
      "Ġwholes": 6876,
      "Ġworried": 6877,
      "Ġconvenient": 6878,
      "Ġletting": 6879,
      "Ġbliss": 6880,
      "Ġblushes": 6881,
      "eliev": 6882,
      "ĠHold": 6883,
      "ĠHeaven": 6884,
      "ĠHaving": 6885,
      "Ġpranks": 6886,
      "emper": 6887,
      "empered": 6888,
      "respect": 6889,
      "Ġplat": 6890,
      "ĠPeaseblossom": 6891,
      "ĠPedro": 6892,
      "Ġtheirs": 6893,
      "Ġalthough": 6894,
      "Ġrhe": 6895,
      "Ġrat": 6896,
      "ĠEr": 6897,
      "ĠEast": 6898,
      "ighed": 6899,
      "ĠDis": 6900,
      "ĠDane": 6901,
      "Ġagreed": 6902,
      "ĠOber": 6903,
      "Ġhowling": 6904,
      "Ġriv": 6905,
      "Ġens": 6906,
      "Ġbetwixt": 6907,
      "umes": 6908,
      "agon": 6909,
      "Ġchur": 6910,
      "Ġchief": 6911,
      "Ġoffers": 6912,
      "Ġoffices": 6913,
      "Ġprover": 6914,
      "Ġproves": 6915,
      "ĠWar": 6916,
      "Ġdiss": 6917,
      "Ġdislo": 6918,
      "ĠGower": 6919,
      "ĠGanymede": 6920,
      "Ġchap": 6921,
      "Ġwherever": 6922,
      "Ġeverybody": 6923,
      "Ġeverywhere": 6924,
      "iously": 6925,
      "Yours": 6926,
      "Ġevening": 6927,
      "Ġdesign": 6928,
      "Ġadores": 6929,
      "Ġtrim": 6930,
      "Ġduck": 6931,
      "Ġbacks": 6932,
      "Ġparting": 6933,
      "Ġpregn": 6934,
      "Ġeverlasting": 6935,
      "Ġbegun": 6936,
      "Ġroses": 6937,
      "Ġnoblemen": 6938,
      "blood": 6939,
      "Ġscene": 6940,
      "Ġprays": 6941,
      "ĠThus": 6942,
      "Beat": 6943,
      "beit": 6944,
      "Ġragged": 6945,
      "Ġperj": 6946,
      "Ġperio": 6947,
      "Ġperish": 6948,
      "Ġharder": 6949,
      "ertrude": 6950,
      "Ġsmack": 6951,
      "Ġsmothered": 6952,
      "Ġcontains": 6953,
      "Ġrepay": 6954,
      "Ġrepose": 6955,
      "Ġrepair": 6956,
      "Ġclimb": 6957,
      "Ġlief": 6958,
      "Ġendeav": 6959,
      "Ġjokes": 6960,
      "lts": 6961,
      "aws": 6962,
      "Ġmerri": 6963,
      "enses": 6964,
      "Ġbread": 6965,
      "onsh": 6966,
      "Ġhasty": 6967,
      "Stanley": 6968,
      "Ġcareless": 6969,
      "Ġhole": 6970,
      "Ġstrangers": 6971,
      "ĠVincent": 6972,
      "Ġimped": 6973,
      "Ġimpress": 6974,
      "Ġimpatience": 6975,
      "Ġhonestly": 6976,
      "Ġconfisc": 6977,
      "Ġconfirmed": 6978,
      "Ġcheated": 6979,
      "Ġmajest": 6980,
      "Ġwears": 6981,
      "Ġassurance": 6982,
      "Ġcharges": 6983,
      "Ġpasses": 6984,
      "Ġemotion": 6985,
      "Ġpurple": 6986,
      "Ġsending": 6987,
      "Ġuncles": 6988,
      "Ġattent": 6989,
      "Ġattempt": 6990,
      "Ġaccident": 6991,
      "Ġbuilt": 6992,
      "Ġbubble": 6993,
      "Ġretire": 6994,
      "Ġmusician": 6995,
      "Ġbrid": 6996,
      "Ġcoat": 6997,
      "Orsino": 6998,
      "Ġeats": 6999,
      "Ġdisco": 7000,
      "Ġearthly": 7001,
      "lets": 7002,
      "Ġlawy": 7003,
      "Ġsounded": 7004,
      "Ġgrass": 7005,
      "Ġdisposed": 7006,
      "Ġgrew": 7007,
      "Ġbiting": 7008,
      "ĠStrato": 7009,
      "Ġtrusted": 7010,
      "Ġrevenue": 7011,
      "Ġtemple": 7012,
      "Ġgenerals": 7013,
      "Wouldst": 7014,
      "standing": 7015,
      "Ġduties": 7016,
      "Ġlaughs": 7017,
      "Ġminister": 7018,
      "Ġrefuses": 7019,
      "Ġbeards": 7020,
      "Ġknocks": 7021,
      "Ġsuffers": 7022,
      "Ġdrowning": 7023,
      "Ġcaptured": 7024,
      "Ġrequests": 7025,
      "Ġfamilies": 7026,
      "Ġbroad": 7027,
      "Ġlowly": 7028,
      "Ġmocks": 7029,
      "Ġpurposes": 7030,
      "why": 7031,
      "Ġpupp": 7032,
      "Ġknaves": 7033,
      "Ġmurderous": 7034,
      "together": 7035,
      "Ġdecor": 7036,
      "Ġdecide": 7037,
      "Ġabsent": 7038,
      "Trust": 7039,
      "Ġsummon": 7040,
      "ĠChristians": 7041,
      "Ġhappening": 7042,
      "Ġtreating": 7043,
      "ĠAnne": 7044,
      "ĠDido": 7045,
      "Ġpenny": 7046,
      "Ġapol": 7047,
      "Ġprivile": 7048,
      "Seek": 7049,
      "Ġstrumpet": 7050,
      "Ġsecrets": 7051,
      "Ġsecretly": 7052,
      "Ġheirs": 7053,
      "Ġgloves": 7054,
      "Ġcourageous": 7055,
      "Ġsteals": 7056,
      "Ġflee": 7057,
      "Ġgrievous": 7058,
      "Ġveins": 7059,
      "Ġtax": 7060,
      "Ġstarve": 7061,
      "ĠParth": 7062,
      "ĠDonalbain": 7063,
      "Ġgreeting": 7064,
      "Ġgreetings": 7065,
      "Ġtransl": 7066,
      "Ġsighing": 7067,
      "Ġflattery": 7068,
      "Ġerror": 7069,
      "Ġurged": 7070,
      "Ġshoot": 7071,
      "ĠMontagues": 7072,
      "Ġconquered": 7073,
      "Ġfrowns": 7074,
      "Ġthreaten": 7075,
      "Ġequally": 7076,
      "Ġpolitic": 7077,
      "Ġmagician": 7078,
      "Ġconclude": 7079,
      "Ġcauses": 7080,
      "Ġsavages": 7081,
      "odo": 7082,
      "Ġlunatic": 7083,
      "Ġwealthy": 7084,
      "Ġsucceed": 7085,
      "Ġtrembling": 7086,
      "Ġmountain": 7087,
      "Ġnegl": 7088,
      "Ġconcerning": 7089,
      "Ġunfold": 7090,
      "Ġunfaithful": 7091,
      "Ġpictures": 7092,
      "Ġancest": 7093,
      "Ġwitchcraft": 7094,
      "Ġbridegroom": 7095,
      "ĠbanishÃ¨d": 7096,
      "Ġexpert": 7097,
      "Ġowl": 7098,
      "Ġowes": 7099,
      "Ġwandering": 7100,
      "Ġstomachs": 7101,
      "Ġshrewd": 7102,
      "Ġdukedoms": 7103,
      "Pluck": 7104,
      "Ġphrase": 7105,
      "ĠBlunt": 7106,
      "Ġearlier": 7107,
      "Ġscarcely": 7108,
      "Ġverse": 7109,
      "Ġholid": 7110,
      "Ġdefeated": 7111,
      "Ġunbeliev": 7112,
      "Ġcomplaints": 7113,
      "Ġsaucy": 7114,
      "Ġexecuted": 7115,
      "Ġcelebration": 7116,
      "Ġcurtain": 7117,
      "Conf": 7118,
      "Honestly": 7119,
      "Ġungrateful": 7120,
      "Ġcondemn": 7121,
      "Ġcondemned": 7122,
      "aurus": 7123,
      "Ġepit": 7124,
      "Ġprodig": 7125,
      "Ġfeeble": 7126,
      "Ġadvancement": 7127,
      "Ġdisturbed": 7128,
      "Claudio": 7129,
      "Ġbrawl": 7130,
      "ĠSweet": 7131,
      "Ġundertake": 7132,
      "Ġmasquer": 7133,
      "ĠTurkish": 7134,
      "Ġballs": 7135,
      "Ġbankrupt": 7136,
      "score": 7137,
      "Ġhelmet": 7138,
      "Ġvoices": 7139,
      "Ġsleeve": 7140,
      "Ġpirates": 7141,
      "Ġdishonored": 7142,
      "ĠBrabantio": 7143,
      "Ġsociety": 7144,
      "Ġannounce": 7145,
      "Ġgnaw": 7146,
      "Ġunusual": 7147,
      "Ġrepresent": 7148,
      "Ġsurprised": 7149,
      "Ġscholar": 7150,
      "Ġceremonies": 7151,
      "nardo": 7152,
      "Ġreverend": 7153,
      "ĠArabia": 7154,
      "Ġuniversal": 7155,
      "Ġentrails": 7156,
      "Ġtragedy": 7157,
      "ĠBarbary": 7158,
      "Ġcalendar": 7159,
      "Rosalind": 7160,
      "Ġwreath": 7161,
      "Ġdainty": 7162,
      "Ġeunuch": 7163,
      "Ġweasel": 7164,
      "ĠAlenÃ§on": 7165,
      "Ġwholesome": 7166,
      "ĠOberon": 7167,
      "Ġpregnant": 7168,
      "ĠVincentio": 7169,
      "Aw": 7170,
      "Com": 7171,
      "Char": 7172,
      "Content": 7173,
      "Commend": 7174,
      "De": 7175,
      "Ere": 7176,
      "Four": 7177,
      "Fine": 7178,
      "Gon": 7179,
      "Hum": 7180,
      "Hap": 7181,
      "Husband": 7182,
      "Lock": 7183,
      "Lorenzo": 7184,
      "Mess": 7185,
      "New": 7186,
      "Pass": 7187,
      "Pret": 7188,
      "Perc": 7189,
      "People": 7190,
      "Rel": 7191,
      "Regan": 7192,
      "Rob": 7193,
      "Tr": 7194,
      "Virt": 7195,
      "Women": 7196,
      "ah": 7197,
      "bro": 7198,
      "back": 7199,
      "bol": 7200,
      "bby": 7201,
      "bute": 7202,
      "cat": 7203,
      "cies": 7204,
      "cule": 7205,
      "din": 7206,
      "dst": 7207,
      "fast": 7208,
      "gest": 7209,
      "gins": 7210,
      "hum": 7211,
      "hib": 7212,
      "kind": 7213,
      "live": 7214,
      "lause": 7215,
      "lip": 7216,
      "mag": 7217,
      "mbl": 7218,
      "mons": 7219,
      "nel": 7220,
      "nicious": 7221,
      "oison": 7222,
      "oined": 7223,
      "ping": 7224,
      "rt": 7225,
      "sm": 7226,
      "sha": 7227,
      "some": 7228,
      "tell": 7229,
      "uries": 7230,
      "wood": 7231,
      "wick": 7232,
      "wife": 7233,
      "yn": 7234,
      "yard": 7235,
      "zab": 7236,
      "Ġz": 7237,
      "Ġrow": 7238,
      "ĠWhether": 7239,
      "Ġtab": 7240,
      "Ġaid": 7241,
      "ouder": 7242,
      "Ġsow": 7243,
      "Ġsand": 7244,
      "Ġsie": 7245,
      "Ġsouth": 7246,
      "Ġsaints": 7247,
      "Ġmixed": 7248,
      "Ġwa": 7249,
      "Ġwi": 7250,
      "Ġwes": 7251,
      "Ġwink": 7252,
      "Ġwipe": 7253,
      "rebonius": 7254,
      "happy": 7255,
      "Ġber": 7256,
      "Ġbay": 7257,
      "Ġbree": 7258,
      "Ġboring": 7259,
      "isp": 7260,
      "llable": 7261,
      "onna": 7262,
      "Ġfed": 7263,
      "Ġfray": 7264,
      "Ġfix": 7265,
      "Ġded": 7266,
      "Ġdate": 7267,
      "Ġdise": 7268,
      "Ġdiz": 7269,
      "Ġdial": 7270,
      "Ġdiest": 7271,
      "ittle": 7272,
      "itche": 7273,
      "Ġlute": 7274,
      "Ġcro": 7275,
      "Ġcaut": 7276,
      "Ġcups": 7277,
      "Ġtow": 7278,
      "Ġtootha": 7279,
      "Ġnut": 7280,
      "Ġnour": 7281,
      "Ġnupt": 7282,
      "Ġhose": 7283,
      "ĠImp": 7284,
      "Ġoats": 7285,
      "arant": 7286,
      "inger": 7287,
      "Ġhey": 7288,
      "Ġhedge": 7289,
      "ano": 7290,
      "enix": 7291,
      "Ġpent": 7292,
      "Ġpop": 7293,
      "Ġpud": 7294,
      "Ġpalm": 7295,
      "Ġpension": 7296,
      "Ġgest": 7297,
      "Ġgap": 7298,
      "omit": 7299,
      "eding": 7300,
      "Ġbeams": 7301,
      "Ġhap": 7302,
      "Ġinward": 7303,
      "Ġinvol": 7304,
      "Ġinvest": 7305,
      "Ġegg": 7306,
      "Ġweed": 7307,
      "Ġwept": 7308,
      "adise": 7309,
      "Ġnotorious": 7310,
      "ashes": 7311,
      "rick": 7312,
      "Ġkitche": 7313,
      "Ġliking": 7314,
      "Ġsteed": 7315,
      "Ġstale": 7316,
      "Ġstony": 7317,
      "ĠAy": 7318,
      "ĠAli": 7319,
      "ĠAntipholus": 7320,
      "rain": 7321,
      "raced": 7322,
      "Ġant": 7323,
      "Ġdefect": 7324,
      "Ġdeaf": 7325,
      "ĠTime": 7326,
      "ĠTrebonius": 7327,
      "Ġseest": 7328,
      "Ġsequ": 7329,
      "Ġsevent": 7330,
      "Ġseize": 7331,
      "Ġsembl": 7332,
      "Ġlodge": 7333,
      "ĠCall": 7334,
      "ĠCont": 7335,
      "Ġgobl": 7336,
      "ighty": 7337,
      "ruly": 7338,
      "iless": 7339,
      "Ġnobly": 7340,
      "Ġnobody": 7341,
      "Ġmanly": 7342,
      "Ġshift": 7343,
      "Ġsuic": 7344,
      "Whom": 7345,
      "Whip": 7346,
      "anting": 7347,
      "antime": 7348,
      "antagen": 7349,
      "nty": 7350,
      "Ġspy": 7351,
      "Ġate": 7352,
      "ustomed": 7353,
      "Ġshade": 7354,
      "ĠMine": 7355,
      "ĠMakes": 7356,
      "ĠMoon": 7357,
      "ĠMichael": 7358,
      "Ġamorous": 7359,
      "quess": 7360,
      "ĠBra": 7361,
      "ĠSm": 7362,
      "ĠSha": 7363,
      "ĠSay": 7364,
      "ĠSus": 7365,
      "ĠSunday": 7366,
      "Thrice": 7367,
      "Thieves": 7368,
      "ular": 7369,
      "ulate": 7370,
      "Ġsway": 7371,
      "Ġuses": 7372,
      "Ġusing": 7373,
      "arel": 7374,
      "ardol": 7375,
      "ico": 7376,
      "Ġabhor": 7377,
      "Ġorig": 7378,
      "Ġornam": 7379,
      "Ġblown": 7380,
      "Ġblock": 7381,
      "Ġblank": 7382,
      "ophy": 7383,
      "Ġargu": 7384,
      "Ġprim": 7385,
      "Ġprime": 7386,
      "Ġprating": 7387,
      "ĠLew": 7388,
      "Ġplenty": 7389,
      "Ġwhence": 7390,
      "ĠPuck": 7391,
      "ĠPisa": 7392,
      "Ġaltogether": 7393,
      "Ġrate": 7394,
      "Ġrings": 7395,
      "Ġmadonna": 7396,
      "Ġbrim": 7397,
      "ĠEli": 7398,
      "ĠEmp": 7399,
      "ĠEgeus": 7400,
      "ignty": 7401,
      "ĠRialt": 7402,
      "ĠOliver": 7403,
      "arts": 7404,
      "artered": 7405,
      "Ġexha": 7406,
      "Ġriot": 7407,
      "Ġrival": 7408,
      "Ġmarred": 7409,
      "agious": 7410,
      "Ġchin": 7411,
      "Ġchose": 7412,
      "Ġproven": 7413,
      "ĠWood": 7414,
      "Ġdisaster": 7415,
      "Ġlean": 7416,
      "Ġlevel": 7417,
      "Ġlecher": 7418,
      "lose": 7419,
      "Ġkeen": 7420,
      "berries": 7421,
      "Ġrust": 7422,
      "Ġruff": 7423,
      "Ġrumor": 7424,
      "Ġrulers": 7425,
      "Ġearned": 7426,
      "Ġearls": 7427,
      "acc": 7428,
      "iana": 7429,
      "Ġdesired": 7430,
      "Ġladyship": 7431,
      "Ġcoup": 7432,
      "Ġkills": 7433,
      "Whenever": 7434,
      "Ġtrash": 7435,
      "ĠNever": 7436,
      "Ġfeatures": 7437,
      "ĠJack": 7438,
      "ĠJacob": 7439,
      "Ġpreced": 7440,
      "Ġroad": 7441,
      "Ġscurvy": 7442,
      "isscross": 7443,
      "Being": 7444,
      "Ġwarning": 7445,
      "Ġkindred": 7446,
      "Ġhoping": 7447,
      "Ġslut": 7448,
      "onday": 7449,
      "Ġpernicious": 7450,
      "Ġapplause": 7451,
      "Ġapparel": 7452,
      "Ġsmiled": 7453,
      "Ġsmoke": 7454,
      "udgment": 7455,
      "Ġhelping": 7456,
      "Ġache": 7457,
      "Ġguide": 7458,
      "Ġguests": 7459,
      "Ġguarant": 7460,
      "Ġclothing": 7461,
      "Ġneedful": 7462,
      "Ġshowing": 7463,
      "Ġsincere": 7464,
      "Ġhorrid": 7465,
      "forth": 7466,
      "Ġconsum": 7467,
      "Ġpattern": 7468,
      "Sirs": 7469,
      "Sirrah": 7470,
      "Ġimpatient": 7471,
      "Ġglorious": 7472,
      "Ġglories": 7473,
      "Ġconfirm": 7474,
      "Ġchanges": 7475,
      "Ġmale": 7476,
      "Ġinsp": 7477,
      "Ġinsanity": 7478,
      "Ġassign": 7479,
      "Ġassault": 7480,
      "inny": 7481,
      "inner": 7482,
      "Ġwoke": 7483,
      "Ġfully": 7484,
      "Ġcraw": 7485,
      "Ġcraves": 7486,
      "Ġcurst": 7487,
      "Ġpurg": 7488,
      "Ġindebted": 7489,
      "Ġuseless": 7490,
      "Ġpreserve": 7491,
      "Ġretreat": 7492,
      "ĠUnder": 7493,
      "ĠUntil": 7494,
      "Ġmusical": 7495,
      "Ġcoin": 7496,
      "Ġcoll": 7497,
      "Ġsecure": 7498,
      "Ġblessings": 7499,
      "Ġpleasures": 7500,
      "Ġdrinks": 7501,
      "Ġgraceful": 7502,
      "Ġsupply": 7503,
      "ĠMyself": 7504,
      "Ġinstance": 7505,
      "Ġdangers": 7506,
      "Ġgrowth": 7507,
      "Ġdoubtful": 7508,
      "Ġpaying": 7509,
      "Ġgrim": 7510,
      "Ġdispl": 7511,
      "Ġanguish": 7512,
      "Ġwatery": 7513,
      "Ġleads": 7514,
      "Ġbravely": 7515,
      "Ġdared": 7516,
      "rels": 7517,
      "ĠIsis": 7518,
      "Ġtrusty": 7519,
      "Ġshameful": 7520,
      "Ġstrife": 7521,
      "Ġdenying": 7522,
      "ĠNorth": 7523,
      "Ġdistin": 7524,
      "Ġdistress": 7525,
      "Ġquestions": 7526,
      "Ġrelieve": 7527,
      "Ġrelief": 7528,
      "voc": 7529,
      "Ġminor": 7530,
      "Ġcorse": 7531,
      "Ġwilder": 7532,
      "Ġstrain": 7533,
      "Ġdeeper": 7534,
      "Ġburned": 7535,
      "Ġrequired": 7536,
      "Ġrequires": 7537,
      "Ġvisage": 7538,
      "Hero": 7539,
      "Ġsuited": 7540,
      "Ġapproaches": 7541,
      "Ġplanning": 7542,
      "Ġinfirm": 7543,
      "Ġcapable": 7544,
      "Ġforgiven": 7545,
      "Ġwasting": 7546,
      "Ġladder": 7547,
      "ception": 7548,
      "Ġdevoted": 7549,
      "ĠShore": 7550,
      "Ġfeasts": 7551,
      "Ġreported": 7552,
      "Ġdecree": 7553,
      "Ġopposed": 7554,
      "Ġwitnesses": 7555,
      "Ġdraws": 7556,
      "Ġprofound": 7557,
      "Ġsigns": 7558,
      "Ġdivide": 7559,
      "Ġincred": 7560,
      "Ġdespise": 7561,
      "Ġpractices": 7562,
      "Ġmoody": 7563,
      "Ġmemor": 7564,
      "Ġparl": 7565,
      "strate": 7566,
      "Ġtorches": 7567,
      "Ġgloomy": 7568,
      "Ġpossessions": 7569,
      "Ġbriefly": 7570,
      "Exactly": 7571,
      "Ġindire": 7572,
      "Ġindiffe": 7573,
      "ĠWhile": 7574,
      "ĠWhilst": 7575,
      "Ġsixth": 7576,
      "Ġtreasons": 7577,
      "Quick": 7578,
      "Ġaddition": 7579,
      "Ġwoods": 7580,
      "Ġbastards": 7581,
      "Ġcrossed": 7582,
      "Ġsovereignty": 7583,
      "Ġwillingly": 7584,
      "ĠScone": 7585,
      "Ġbeholding": 7586,
      "Ġtransform": 7587,
      "Ġtransformed": 7588,
      "Ġliberal": 7589,
      "Ġstirring": 7590,
      "Ġschoolboy": 7591,
      "Ġschoolmaster": 7592,
      "Ġcrows": 7593,
      "Ġthreats": 7594,
      "Ġthreatened": 7595,
      "Anything": 7596,
      "Ġslandered": 7597,
      "Ġtroop": 7598,
      "Ġpitch": 7599,
      "Ġrebel": 7600,
      "Ġacquainted": 7601,
      "Next": 7602,
      "Ġfilled": 7603,
      "Ġhills": 7604,
      "Methought": 7605,
      "Ġmountains": 7606,
      "ĠAlexand": 7607,
      "ĠSeem": 7608,
      "Ġconcerns": 7609,
      "Ġamazing": 7610,
      "Ġcontinually": 7611,
      "Ġbaseness": 7612,
      "Ġexperienced": 7613,
      "Ġpositions": 7614,
      "Ġsource": 7615,
      "Ġinjuries": 7616,
      "ĠTurks": 7617,
      "Ġpersuasion": 7618,
      "Ġmutt": 7619,
      "pollo": 7620,
      "Ġentirely": 7621,
      "Ġglasses": 7622,
      "Ġplucked": 7623,
      "Ġcreate": 7624,
      "Ġplead": 7625,
      "Ġhungry": 7626,
      "Ġdestroyed": 7627,
      "Ġperilous": 7628,
      "Ġwrap": 7629,
      "Ġpredi": 7630,
      "Ġchooseth": 7631,
      "Ġprophecy": 7632,
      "Ġtotally": 7633,
      "Ġhunting": 7634,
      "ĠIndies": 7635,
      "Ġevents": 7636,
      "Ġstretched": 7637,
      "ĠBelmont": 7638,
      "Ġfairer": 7639,
      "Ġintentions": 7640,
      "Ġcontrad": 7641,
      "zzled": 7642,
      "Ġhighest": 7643,
      "Ġdisturb": 7644,
      "Perhaps": 7645,
      "Ġlogic": 7646,
      "Ġchaste": 7647,
      "Ġadmirable": 7648,
      "Ġinvention": 7649,
      "Ġdescribe": 7650,
      "Ġcuckoo": 7651,
      "Ġcuckold": 7652,
      "Ġhawthorn": 7653,
      "Ġinfected": 7654,
      "Ġassembled": 7655,
      "Ġenforced": 7656,
      "Ġfurnish": 7657,
      "Ġgentleness": 7658,
      "Ġeagles": 7659,
      "ĠFerdin": 7660,
      "Ġaffected": 7661,
      "Ġintelligence": 7662,
      "Ġextremity": 7663,
      "Return": 7664,
      "Ġreckon": 7665,
      "ĠrenownÃ¨d": 7666,
      "runk": 7667,
      "Ġorgan": 7668,
      "Ġbragging": 7669,
      "Ġincrease": 7670,
      "Ġdisgusting": 7671,
      "Ġsanctuary": 7672,
      "Malvolio": 7673,
      "Ġfulf": 7674,
      "Ġthoroughly": 7675,
      "Ġrepeat": 7676,
      "Ġunlucky": 7677,
      "Ġdisdainful": 7678,
      "ĠGreek": 7679,
      "Ġbeggars": 7680,
      "Ġimprisoned": 7681,
      "Ġsurvived": 7682,
      "Ġefforts": 7683,
      "Gracious": 7684,
      "Ġconsequence": 7685,
      "Ġunfortunate": 7686,
      "Ġrumors": 7687,
      "Ġbarbarous": 7688,
      "Ġobservance": 7689,
      "Ġperformance": 7690,
      "Ġmingle": 7691,
      "Ġomens": 7692,
      "Ġstyle": 7693,
      "Ġupbraid": 7694,
      "ĠSatan": 7695,
      "Ġnightingale": 7696,
      "Ġcontempl": 7697,
      "Ġsufficient": 7698,
      "Ġbulk": 7699,
      "Ġfemale": 7700,
      "Ġcowslip": 7701,
      "Ġhomage": 7702,
      "Ġplatform": 7703,
      "Ġrivals": 7704,
      "ĠWarwick": 7705,
      "Ġdisloyal": 7706,
      "Ġperiod": 7707,
      "onshine": 7708,
      "Ġbridal": 7709,
      "Ġprivilege": 7710,
      "Ġepitaph": 7711,
      "Haply": 7712,
      "News": 7713,
      "Perchance": 7714,
      "Virtue": 7715,
      "culeius": 7716,
      "zabeth": 7717,
      "Ġwestern": 7718,
      "Ġdizzy": 7719,
      "Ġtoothache": 7720,
      "Ġnuptial": 7721,
      "ĠAliena": 7722,
      "Ġsuicide": 7723,
      "antagenet": 7724,
      "ardolph": 7725,
      "Ġorigin": 7726,
      "ĠLewis": 7727,
      "ĠElizabeth": 7728,
      "ĠRialto": 7729,
      "Ġguarantee": 7730,
      "ĠFerdinand": 7731,
      "Ass": 7732,
      "Again": 7733,
      "Acc": 7734,
      "Back": 7735,
      "Bassanio": 7736,
      "Cry": 7737,
      "Count": 7738,
      "Casca": 7739,
      "Cambio": 7740,
      "Den": 7741,
      "Del": 7742,
      "Dolabella": 7743,
      "Double": 7744,
      "Enobarbus": 7745,
      "Fast": 7746,
      "Foul": 7747,
      "Fellow": 7748,
      "Hush": 7749,
      "Into": 7750,
      "Jove": 7751,
      "King": 7752,
      "Kather": 7753,
      "Long": 7754,
      "Must": 7755,
      "Masters": 7756,
      "Nature": 7757,
      "Open": 7758,
      "Pom": 7759,
      "Pyramus": 7760,
      "Petruchio": 7761,
      "Ty": 7762,
      "Tit": 7763,
      "Tush": 7764,
      "Woo": 7765,
      "Woe": 7766,
      "Zounds": 7767,
      "away": 7768,
      "aby": 7769,
      "ables": 7770,
      "aques": 7771,
      "bin": 7772,
      "bet": 7773,
      "burn": 7774,
      "cst": 7775,
      "cure": 7776,
      "cip": 7777,
      "cup": 7778,
      "dler": 7779,
      "eres": 7780,
      "erer": 7781,
      "eys": 7782,
      "five": 7783,
      "fold": 7784,
      "field": 7785,
      "gent": 7786,
      "grown": 7787,
      "hu": 7788,
      "iqu": 7789,
      "iward": 7790,
      "iomed": 7791,
      "lar": 7792,
      "long": 7793,
      "lÃ©": 7794,
      "maid": 7795,
      "oat": 7796,
      "ody": 7797,
      "pence": 7798,
      "phant": 7799,
      "poral": 7800,
      "rÃ¨d": 7801,
      "rons": 7802,
      "roop": 7803,
      "sk": 7804,
      "son": 7805,
      "say": 7806,
      "sued": 7807,
      "scaped": 7808,
      "ties": 7809,
      "vity": 7810,
      "vico": 7811,
      "wear": 7812,
      "yster": 7813,
      "yton": 7814,
      "ytha": 7815,
      "zes": 7816,
      "ĠTherefore": 7817,
      "ĠÂłÂłÂłÂłÂłÂłÂłÂłÂłÂłÂłÂłÂłÂłÂłÂłÂłÂłÂłÂłÂłÂłÂłÂłÂłÂłÂłÂłÂłÂłÂłÂł": 7818,
      "Ġtight": 7819,
      "Ġtres": 7820,
      "Ġtick": 7821,
      "Ġtarry": 7822,
      "Ġtaint": 7823,
      "held": 7824,
      "hetic": 7825,
      "oura": 7826,
      "Ġmul": 7827,
      "Ġmum": 7828,
      "Ġmute": 7829,
      "Ġwave": 7830,
      "Ġwage": 7831,
      "Ġwren": 7832,
      "Ġwaking": 7833,
      "Ġwaving": 7834,
      "inch": 7835,
      "inent": 7836,
      "inore": 7837,
      "reth": 7838,
      "recked": 7839,
      "have": 7840,
      "hage": 7841,
      "Ġtheat": 7842,
      "Ġbred": 7843,
      "ism": 7844,
      "Ġyon": 7845,
      "Ġyard": 7846,
      "onc": 7847,
      "onounce": 7848,
      "orth": 7849,
      "orach": 7850,
      "Ġfet": 7851,
      "Ġfest": 7852,
      "Ġfret": 7853,
      "Ġfrant": 7854,
      "Ġfaded": 7855,
      "Ġdot": 7856,
      "Ġdat": 7857,
      "Ġdil": 7858,
      "Ġdren": 7859,
      "Ġdined": 7860,
      "Ġdram": 7861,
      "Ġdivers": 7862,
      "Ġlin": 7863,
      "Ġlouder": 7864,
      "Ġcove": 7865,
      "Ġcrew": 7866,
      "Ġcush": 7867,
      "Ġcott": 7868,
      "Ġtoast": 7869,
      "Ġtoler": 7870,
      "erick": 7871,
      "esus": 7872,
      "Ġnon": 7873,
      "Ġnuts": 7874,
      "Ġnimble": 7875,
      "Ġhood": 7876,
      "Ġhound": 7877,
      "Ġoper": 7878,
      "Ġobl": 7879,
      "Ġoyster": 7880,
      "arily": 7881,
      "arib": 7882,
      "arrass": 7883,
      "Ġheave": 7884,
      "aned": 7885,
      "Ġthigh": 7886,
      "Ġthrew": 7887,
      "Ġped": 7888,
      "Ġpul": 7889,
      "Ġpounds": 7890,
      "Ġpotion": 7891,
      "Ġpushed": 7892,
      "Ġgau": 7893,
      "Ġgun": 7894,
      "Ġgaz": 7895,
      "Ġbew": 7896,
      "Ġbeest": 7897,
      "Ġbeings": 7898,
      "otect": 7899,
      "athan": 7900,
      "athed": 7901,
      "Ġinha": 7902,
      "Ġinex": 7903,
      "Ġinhum": 7904,
      "imp": 7905,
      "imony": 7906,
      "Ġew": 7907,
      "Ġecl": 7908,
      "Ġecho": 7909,
      "Ġecst": 7910,
      "Ġforso": 7911,
      "adam": 7912,
      "adel": 7913,
      "adventure": 7914,
      "Ġonto": 7915,
      "Ġkicked": 7916,
      "alse": 7917,
      "ality": 7918,
      "alian": 7919,
      "alance": 7920,
      "Ġlik": 7921,
      "Ġliver": 7922,
      "Ġlick": 7923,
      "Ġstout": 7924,
      "Ġstoop": 7925,
      "Ġrece": 7926,
      "Ġresemble": 7927,
      "ĠApollo": 7928,
      "raved": 7929,
      "Ġanch": 7930,
      "Ġanno": 7931,
      "outham": 7932,
      "urity": 7933,
      "urrey": 7934,
      "Ġdeck": 7935,
      "Ġwhist": 7936,
      "ĠTro": 7937,
      "ĠTurn": 7938,
      "ĠTalk": 7939,
      "Ġhero": 7940,
      "ĠCry": 7941,
      "ĠCris": 7942,
      "ĠCambio": 7943,
      "tering": 7944,
      "Ġgoats": 7945,
      "ighted": 7946,
      "ioned": 7947,
      "Helen": 7948,
      "rue": 7949,
      "ilar": 7950,
      "ilus": 7951,
      "Ġnoses": 7952,
      "ived": 7953,
      "ively": 7954,
      "roll": 7955,
      "estion": 7956,
      "Ġshove": 7957,
      "Ġsucked": 7958,
      "Ġcann": 7959,
      "Ġspurs": 7960,
      "Ġlovest": 7961,
      "inded": 7962,
      "Ġsheath": 7963,
      "earn": 7964,
      "ĠMars": 7965,
      "Ġamend": 7966,
      "quire": 7967,
      "quiet": 7968,
      "ĠBring": 7969,
      "ĠBardolph": 7970,
      "ĠSen": 7971,
      "ĠSea": 7972,
      "ĠSiward": 7973,
      "ĠSoutham": 7974,
      "ĠSurrey": 7975,
      "Ġvig": 7976,
      "Ġoutst": 7977,
      "Throw": 7978,
      "Ġwhoever": 7979,
      "Ġtherein": 7980,
      "Ġthereof": 7981,
      "ics": 7982,
      "icit": 7983,
      "icing": 7984,
      "ication": 7985,
      "ically": 7986,
      "icated": 7987,
      "icial": 7988,
      "Ġabuses": 7989,
      "Ġability": 7990,
      "ooked": 7991,
      "Ġfaced": 7992,
      "Ġblot": 7993,
      "rederick": 7994,
      "ĠHim": 7995,
      "ateful": 7996,
      "Ġprank": 7997,
      "ĠLu": 7998,
      "ĠLay": 7999
    },
    "merges": [
      [
        "Ġ",
        "t"
      ],
      [
        "h",
        "e"
      ],
      [
        "Ġ",
        "a"
      ],
      [
        "o",
        "u"
      ],
      [
        "Ġ",
        "s"
      ],
      [
        "Ġ",
        "m"
      ],
      [
        "Ġ",
        "w"
      ],
      [
        "i",
        "n"
      ],
      [
        "r",
        "e"
      ],
      [
        "h",
        "a"
      ],
      [
        "â",
        "Ģ"
      ],
      [
        "Ġt",
        "he"
      ],
      [
        "n",
        "d"
      ],
      [
        "Ġ",
        "b"
      ],
      [
        "i",
        "s"
      ],
      [
        "Ġ",
        "y"
      ],
      [
        "l",
        "l"
      ],
      [
        "Ġy",
        "ou"
      ],
      [
        "o",
        "n"
      ],
      [
        "o",
        "r"
      ],
      [
        "v",
        "e"
      ],
      [
        "âĢ",
        "Ļ"
      ],
      [
        "Ġ",
        "f"
      ],
      [
        "Ġ",
        "d"
      ],
      [
        "i",
        "t"
      ],
      [
        "Ġ",
        "l"
      ],
      [
        "Ġ",
        "c"
      ],
      [
        "Ġt",
        "o"
      ],
      [
        "e",
        "r"
      ],
      [
        "e",
        "s"
      ],
      [
        "Ġ",
        "n"
      ],
      [
        "ha",
        "t"
      ],
      [
        "Ġ",
        "h"
      ],
      [
        "Ġ",
        "I"
      ],
      [
        "Ġ",
        "o"
      ],
      [
        "a",
        "r"
      ],
      [
        "in",
        "g"
      ],
      [
        "Ġ",
        "he"
      ],
      [
        "a",
        "n"
      ],
      [
        "e",
        "n"
      ],
      [
        "Ġt",
        "h"
      ],
      [
        "Ġ",
        "p"
      ],
      [
        "Ġa",
        "nd"
      ],
      [
        "Ġ",
        "g"
      ],
      [
        "o",
        "m"
      ],
      [
        "o",
        "w"
      ],
      [
        "e",
        "d"
      ],
      [
        "Ġo",
        "f"
      ],
      [
        "Ġb",
        "e"
      ],
      [
        "o",
        "t"
      ],
      [
        "s",
        "t"
      ],
      [
        "a",
        "t"
      ],
      [
        "Ġ",
        "ha"
      ],
      [
        "Ġm",
        "y"
      ],
      [
        "Ġm",
        "e"
      ],
      [
        "Ġ",
        "in"
      ],
      [
        "e",
        "t"
      ],
      [
        "l",
        "e"
      ],
      [
        "a",
        "y"
      ],
      [
        "s",
        "e"
      ],
      [
        "l",
        "d"
      ],
      [
        "Ġt",
        "hat"
      ],
      [
        "u",
        "t"
      ],
      [
        "g",
        "h"
      ],
      [
        "i",
        "m"
      ],
      [
        "Ġ",
        "is"
      ],
      [
        "c",
        "e"
      ],
      [
        "o",
        "o"
      ],
      [
        "Ġ",
        "it"
      ],
      [
        "k",
        "e"
      ],
      [
        "Ġ",
        "e"
      ],
      [
        "i",
        "ll"
      ],
      [
        "i",
        "r"
      ],
      [
        "Ġf",
        "or"
      ],
      [
        "Ġyou",
        "r"
      ],
      [
        "Ġw",
        "e"
      ],
      [
        "Ġ",
        "u"
      ],
      [
        "it",
        "h"
      ],
      [
        "a",
        "d"
      ],
      [
        "Ġn",
        "ot"
      ],
      [
        "a",
        "s"
      ],
      [
        "gh",
        "t"
      ],
      [
        "c",
        "h"
      ],
      [
        "r",
        "i"
      ],
      [
        "Ġ",
        "on"
      ],
      [
        "Ġ",
        "k"
      ],
      [
        "Ġw",
        "ith"
      ],
      [
        "i",
        "d"
      ],
      [
        "om",
        "e"
      ],
      [
        "T",
        "he"
      ],
      [
        "Ġha",
        "ve"
      ],
      [
        "l",
        "y"
      ],
      [
        "he",
        "r"
      ],
      [
        "ve",
        "r"
      ],
      [
        "Ġh",
        "im"
      ],
      [
        "Ġa",
        "s"
      ],
      [
        "a",
        "l"
      ],
      [
        "Ġl",
        "i"
      ],
      [
        "Ġs",
        "t"
      ],
      [
        "Ġd",
        "o"
      ],
      [
        "Ġth",
        "is"
      ],
      [
        "Ġ",
        "re"
      ],
      [
        "en",
        "t"
      ],
      [
        "ou",
        "ld"
      ],
      [
        "oo",
        "d"
      ],
      [
        "Ġ",
        "A"
      ],
      [
        "r",
        "a"
      ],
      [
        "Ġs",
        "o"
      ],
      [
        "or",
        "d"
      ],
      [
        "âĢ",
        "Ķ"
      ],
      [
        "o",
        "re"
      ],
      [
        "Ġh",
        "is"
      ],
      [
        "Ġw",
        "ill"
      ],
      [
        "e",
        "ll"
      ],
      [
        "Ġa",
        "n"
      ],
      [
        "c",
        "k"
      ],
      [
        "u",
        "s"
      ],
      [
        "ou",
        "r"
      ],
      [
        "ou",
        "t"
      ],
      [
        "u",
        "r"
      ],
      [
        "Ġd",
        "e"
      ],
      [
        "Ġw",
        "h"
      ],
      [
        "Ġ",
        "T"
      ],
      [
        "Ġs",
        "e"
      ],
      [
        "a",
        "m"
      ],
      [
        "Ġhe",
        "r"
      ],
      [
        "Ġl",
        "o"
      ],
      [
        "i",
        "f"
      ],
      [
        "Ġa",
        "re"
      ],
      [
        "Ġth",
        "ou"
      ],
      [
        "a",
        "in"
      ],
      [
        "Ġ",
        "C"
      ],
      [
        "t",
        "er"
      ],
      [
        "es",
        "s"
      ],
      [
        "e",
        "a"
      ],
      [
        "a",
        "ke"
      ],
      [
        "Ġg",
        "o"
      ],
      [
        "a",
        "nd"
      ],
      [
        "i",
        "ght"
      ],
      [
        "i",
        "on"
      ],
      [
        "Ġk",
        "n"
      ],
      [
        "H",
        "e"
      ],
      [
        "W",
        "hat"
      ],
      [
        "Ġa",
        "ll"
      ],
      [
        "r",
        "u"
      ],
      [
        "i",
        "l"
      ],
      [
        "Ġn",
        "e"
      ],
      [
        "Ġn",
        "o"
      ],
      [
        "i",
        "ve"
      ],
      [
        "r",
        "o"
      ],
      [
        "Y",
        "ou"
      ],
      [
        "ha",
        "n"
      ],
      [
        "es",
        "t"
      ],
      [
        "Ġm",
        "an"
      ],
      [
        "Ġs",
        "h"
      ],
      [
        "g",
        "e"
      ],
      [
        "Ġs",
        "u"
      ],
      [
        "W",
        "h"
      ],
      [
        "Ġc",
        "an"
      ],
      [
        "t",
        "h"
      ],
      [
        "Ġw",
        "hat"
      ],
      [
        "c",
        "t"
      ],
      [
        "an",
        "t"
      ],
      [
        "Ġg",
        "ood"
      ],
      [
        "a",
        "u"
      ],
      [
        "Ġb",
        "ut"
      ],
      [
        "B",
        "ut"
      ],
      [
        "n",
        "t"
      ],
      [
        "r",
        "om"
      ],
      [
        "Ġs",
        "p"
      ],
      [
        "Ġlo",
        "ve"
      ],
      [
        "in",
        "d"
      ],
      [
        "on",
        "e"
      ],
      [
        "Ġa",
        "t"
      ],
      [
        "Ġl",
        "ord"
      ],
      [
        "u",
        "st"
      ],
      [
        "Ġu",
        "p"
      ],
      [
        "Ġkn",
        "ow"
      ],
      [
        "Ġs",
        "ha"
      ],
      [
        "Ġw",
        "as"
      ],
      [
        "Ġhe",
        "ar"
      ],
      [
        "a",
        "st"
      ],
      [
        "Ġs",
        "he"
      ],
      [
        "r",
        "y"
      ],
      [
        "b",
        "le"
      ],
      [
        "Ġw",
        "he"
      ],
      [
        "Ġli",
        "ke"
      ],
      [
        "i",
        "e"
      ],
      [
        "ĠA",
        "nd"
      ],
      [
        "a",
        "ll"
      ],
      [
        "Ġs",
        "ay"
      ],
      [
        "A",
        "nd"
      ],
      [
        "e",
        "ar"
      ],
      [
        "in",
        "k"
      ],
      [
        "Ġc",
        "om"
      ],
      [
        "Ġhe",
        "re"
      ],
      [
        "ou",
        "s"
      ],
      [
        "Ġw",
        "ould"
      ],
      [
        "Ġ",
        "M"
      ],
      [
        "e",
        "nd"
      ],
      [
        "Ġa",
        "m"
      ],
      [
        "Ġb",
        "y"
      ],
      [
        "l",
        "f"
      ],
      [
        "Ġs",
        "ir"
      ],
      [
        "Ġ",
        "our"
      ],
      [
        "Ġ",
        "if"
      ],
      [
        "Ġse",
        "e"
      ],
      [
        "ve",
        "n"
      ],
      [
        "Ġf",
        "rom"
      ],
      [
        "p",
        "p"
      ],
      [
        "Ġt",
        "han"
      ],
      [
        "e",
        "p"
      ],
      [
        "q",
        "u"
      ],
      [
        "Ġthe",
        "m"
      ],
      [
        "Ġ",
        "B"
      ],
      [
        "Ġm",
        "ore"
      ],
      [
        "Ġ",
        "S"
      ],
      [
        "Ġ",
        "j"
      ],
      [
        "Ġ",
        "v"
      ],
      [
        "Ġ",
        "out"
      ],
      [
        "I",
        "f"
      ],
      [
        "T",
        "h"
      ],
      [
        "on",
        "g"
      ],
      [
        "Ġn",
        "ow"
      ],
      [
        "u",
        "l"
      ],
      [
        "Ġs",
        "w"
      ],
      [
        "Ġu",
        "s"
      ],
      [
        "Ġwh",
        "o"
      ],
      [
        "Ġthe",
        "y"
      ],
      [
        "G",
        "o"
      ],
      [
        "Ġthe",
        "re"
      ],
      [
        "i",
        "o"
      ],
      [
        "a",
        "re"
      ],
      [
        "r",
        "ow"
      ],
      [
        "Ġw",
        "or"
      ],
      [
        "er",
        "s"
      ],
      [
        "ar",
        "d"
      ],
      [
        "i",
        "c"
      ],
      [
        "Ġc",
        "on"
      ],
      [
        "Ġa",
        "b"
      ],
      [
        "Ġd",
        "id"
      ],
      [
        "oo",
        "k"
      ],
      [
        "Ġl",
        "et"
      ],
      [
        "ver",
        "y"
      ],
      [
        "O",
        "h"
      ],
      [
        "in",
        "e"
      ],
      [
        "Ġ",
        "or"
      ],
      [
        "Ġthe",
        "e"
      ],
      [
        "se",
        "lf"
      ],
      [
        "Ġsha",
        "ll"
      ],
      [
        "I",
        "t"
      ],
      [
        "at",
        "her"
      ],
      [
        "Ġt",
        "ell"
      ],
      [
        "Ġf",
        "a"
      ],
      [
        "Ġb",
        "l"
      ],
      [
        "f",
        "e"
      ],
      [
        "Ġon",
        "e"
      ],
      [
        "Ġth",
        "ink"
      ],
      [
        "Ġan",
        "y"
      ],
      [
        "o",
        "p"
      ],
      [
        "Ġth",
        "y"
      ],
      [
        "e",
        "l"
      ],
      [
        "W",
        "he"
      ],
      [
        "N",
        "o"
      ],
      [
        "re",
        "d"
      ],
      [
        "Ġthe",
        "n"
      ],
      [
        "Ġ",
        "H"
      ],
      [
        "at",
        "e"
      ],
      [
        "M",
        "y"
      ],
      [
        "Ġwe",
        "re"
      ],
      [
        "Ġs",
        "a"
      ],
      [
        "am",
        "e"
      ],
      [
        "Ġwe",
        "ll"
      ],
      [
        "Ġa",
        "r"
      ],
      [
        "âĢ",
        "Ŀ"
      ],
      [
        "Ġp",
        "r"
      ],
      [
        "Ġ",
        "L"
      ],
      [
        "Ġ",
        "F"
      ],
      [
        "Ġc",
        "ome"
      ],
      [
        "e",
        "m"
      ],
      [
        "re",
        "s"
      ],
      [
        "re",
        "at"
      ],
      [
        "Ġp",
        "l"
      ],
      [
        "n",
        "g"
      ],
      [
        "Ġwhe",
        "n"
      ],
      [
        "Ġ",
        "P"
      ],
      [
        "Ġthe",
        "ir"
      ],
      [
        "Ġm",
        "o"
      ],
      [
        "is",
        "t"
      ],
      [
        "Ġp",
        "o"
      ],
      [
        "is",
        "h"
      ],
      [
        "Ġa",
        "l"
      ],
      [
        "a",
        "k"
      ],
      [
        "Ġ",
        "r"
      ],
      [
        "ot",
        "her"
      ],
      [
        "Ġsh",
        "ould"
      ],
      [
        "Ġto",
        "o"
      ],
      [
        "Ġm",
        "ad"
      ],
      [
        "i",
        "ch"
      ],
      [
        "Ġs",
        "ome"
      ],
      [
        "Ġb",
        "r"
      ],
      [
        "Ġg",
        "ive"
      ],
      [
        "ou",
        "nd"
      ],
      [
        "Ġ",
        "E"
      ],
      [
        "im",
        "e"
      ],
      [
        "f",
        "ore"
      ],
      [
        "Ġm",
        "ake"
      ],
      [
        "i",
        "g"
      ],
      [
        "Ġab",
        "out"
      ],
      [
        "ad",
        "y"
      ],
      [
        "Ġ",
        "D"
      ],
      [
        "Wh",
        "y"
      ],
      [
        "Ġ",
        "R"
      ],
      [
        "ea",
        "k"
      ],
      [
        "Ġa",
        "g"
      ],
      [
        "or",
        "t"
      ],
      [
        "W",
        "e"
      ],
      [
        "Ġ",
        "O"
      ],
      [
        "ot",
        "h"
      ],
      [
        "ar",
        "t"
      ],
      [
        "w",
        "ay"
      ],
      [
        "i",
        "ce"
      ],
      [
        "Ġu",
        "n"
      ],
      [
        "Ġ",
        "âĢ"
      ],
      [
        "p",
        "t"
      ],
      [
        "ĠT",
        "o"
      ],
      [
        "Ġ",
        "qu"
      ],
      [
        "Ġh",
        "ow"
      ],
      [
        "u",
        "n"
      ],
      [
        "Ġe",
        "x"
      ],
      [
        "Ġk",
        "ing"
      ],
      [
        "Ġ",
        "âĢĻ"
      ],
      [
        "Ġf",
        "ri"
      ],
      [
        "Ġ",
        "ri"
      ],
      [
        "as",
        "s"
      ],
      [
        "Ġb",
        "o"
      ],
      [
        "u",
        "re"
      ],
      [
        "at",
        "h"
      ],
      [
        "Ġd",
        "on"
      ],
      [
        "ĠâĢ",
        "ľ"
      ],
      [
        "a",
        "se"
      ],
      [
        "L",
        "et"
      ],
      [
        "Ġha",
        "d"
      ],
      [
        "Ġ",
        "en"
      ],
      [
        "Ġl",
        "ook"
      ],
      [
        "Ġg",
        "et"
      ],
      [
        "Ġm",
        "ust"
      ],
      [
        "Go",
        "d"
      ],
      [
        "i",
        "ck"
      ],
      [
        "Ġha",
        "s"
      ],
      [
        "Ġ",
        "hat"
      ],
      [
        "Ġt",
        "ru"
      ],
      [
        "is",
        "e"
      ],
      [
        "Ġm",
        "ar"
      ],
      [
        "Ġfri",
        "end"
      ],
      [
        "Ġha",
        "nd"
      ],
      [
        "a",
        "ck"
      ],
      [
        "a",
        "ve"
      ],
      [
        "ĠC",
        "a"
      ],
      [
        "ou",
        "gh"
      ],
      [
        "Ġag",
        "ain"
      ],
      [
        "Ġsp",
        "eak"
      ],
      [
        "The",
        "re"
      ],
      [
        "C",
        "ome"
      ],
      [
        ".",
        "âĢĶ"
      ],
      [
        "es",
        "ar"
      ],
      [
        "T",
        "hat"
      ],
      [
        "Ġbe",
        "t"
      ],
      [
        "Ġt",
        "ime"
      ],
      [
        "o",
        "l"
      ],
      [
        "u",
        "ch"
      ],
      [
        "Ġf",
        "ather"
      ],
      [
        "u",
        "m"
      ],
      [
        "Ġt",
        "ake"
      ],
      [
        "oo",
        "l"
      ],
      [
        "a",
        "g"
      ],
      [
        "ĠT",
        "hat"
      ],
      [
        "H",
        "ow"
      ],
      [
        "Ġhear",
        "t"
      ],
      [
        "ing",
        "s"
      ],
      [
        "r",
        "an"
      ],
      [
        "t",
        "her"
      ],
      [
        "h",
        "ing"
      ],
      [
        "Ġc",
        "h"
      ],
      [
        "Ġof",
        "f"
      ],
      [
        "n",
        "ess"
      ],
      [
        "Â",
        "ł"
      ],
      [
        "u",
        "e"
      ],
      [
        "Ġne",
        "ver"
      ],
      [
        "Ġm",
        "ay"
      ],
      [
        "Ġn",
        "ight"
      ],
      [
        "or",
        "n"
      ],
      [
        "G",
        "ood"
      ],
      [
        "in",
        "ce"
      ],
      [
        "Ġp",
        "ro"
      ],
      [
        "ur",
        "n"
      ],
      [
        "Ġ",
        "W"
      ],
      [
        "Ġt",
        "w"
      ],
      [
        "Ġm",
        "uch"
      ],
      [
        "Ġc",
        "ould"
      ],
      [
        "Âł",
        "Âł"
      ],
      [
        "Ġbe",
        "en"
      ],
      [
        "au",
        "ght"
      ],
      [
        "i",
        "es"
      ],
      [
        "f",
        "ul"
      ],
      [
        "le",
        "ase"
      ],
      [
        "Ġsu",
        "ch"
      ],
      [
        "w",
        "n"
      ],
      [
        "al",
        "k"
      ],
      [
        "Ġm",
        "en"
      ],
      [
        "Ġd",
        "is"
      ],
      [
        "Ġl",
        "e"
      ],
      [
        "Y",
        "es"
      ],
      [
        "au",
        "se"
      ],
      [
        "Ġd",
        "ay"
      ],
      [
        "Ġa",
        "way"
      ],
      [
        "Wh",
        "o"
      ],
      [
        "Th",
        "is"
      ],
      [
        "Whe",
        "re"
      ],
      [
        "e",
        "et"
      ],
      [
        "ow",
        "n"
      ],
      [
        "S",
        "o"
      ],
      [
        "Ġa",
        "f"
      ],
      [
        "Ġl",
        "ea"
      ],
      [
        "it",
        "y"
      ],
      [
        "Ġw",
        "ant"
      ],
      [
        "W",
        "ell"
      ],
      [
        "Ġe",
        "y"
      ],
      [
        "Ġj",
        "ust"
      ],
      [
        "Ġ",
        "The"
      ],
      [
        "ĠCa",
        "esar"
      ],
      [
        "Ġs",
        "er"
      ],
      [
        "Ġwh",
        "ich"
      ],
      [
        "re",
        "e"
      ],
      [
        "Ġthe",
        "se"
      ],
      [
        "I",
        "s"
      ],
      [
        "Ġf",
        "ool"
      ],
      [
        "at",
        "ion"
      ],
      [
        "Ġ",
        "G"
      ],
      [
        "Ġh",
        "on"
      ],
      [
        "l",
        "o"
      ],
      [
        "t",
        "le"
      ],
      [
        "ent",
        "le"
      ],
      [
        "N",
        "ow"
      ],
      [
        "Ġin",
        "t"
      ],
      [
        "d",
        "e"
      ],
      [
        "nd",
        "er"
      ],
      [
        "Ġ",
        "very"
      ],
      [
        "o",
        "ld"
      ],
      [
        "en",
        "ce"
      ],
      [
        "p",
        "e"
      ],
      [
        "Ġ",
        "ke"
      ],
      [
        "he",
        "d"
      ],
      [
        "Ġw",
        "r"
      ],
      [
        "ve",
        "s"
      ],
      [
        "D",
        "o"
      ],
      [
        "Ġ",
        "God"
      ],
      [
        "Ġhat",
        "h"
      ],
      [
        "Ġf",
        "o"
      ],
      [
        "He",
        "re"
      ],
      [
        "Ġc",
        "ha"
      ],
      [
        "ast",
        "er"
      ],
      [
        "i",
        "le"
      ],
      [
        "Ġhe",
        "a"
      ],
      [
        "Ġwhe",
        "re"
      ],
      [
        "Ġbe",
        "c"
      ],
      [
        "Ġup",
        "on"
      ],
      [
        "or",
        "s"
      ],
      [
        "Ġg",
        "reat"
      ],
      [
        "Ġw",
        "ay"
      ],
      [
        "Ġe",
        "very"
      ],
      [
        "id",
        "e"
      ],
      [
        "th",
        "ing"
      ],
      [
        "Ġo",
        "ther"
      ],
      [
        "nt",
        "on"
      ],
      [
        "Ġri",
        "ght"
      ],
      [
        "u",
        "ll"
      ],
      [
        "i",
        "p"
      ],
      [
        "i",
        "re"
      ],
      [
        "i",
        "ous"
      ],
      [
        "Ġf",
        "l"
      ],
      [
        "Ġg",
        "entle"
      ],
      [
        "Y",
        "our"
      ],
      [
        "b",
        "er"
      ],
      [
        "Ġw",
        "ord"
      ],
      [
        "i",
        "ld"
      ],
      [
        "Ġ",
        "ru"
      ],
      [
        "Ġy",
        "et"
      ],
      [
        "Ġe",
        "ar"
      ],
      [
        "s",
        "s"
      ],
      [
        "it",
        "her"
      ],
      [
        "Ġd",
        "aught"
      ],
      [
        "Ġne",
        "w"
      ],
      [
        "a",
        "c"
      ],
      [
        "Ġe",
        "ven"
      ],
      [
        "Ġmo",
        "st"
      ],
      [
        "Ġc",
        "all"
      ],
      [
        "ig",
        "n"
      ],
      [
        "Ġtru",
        "e"
      ],
      [
        "i",
        "an"
      ],
      [
        "Ġo",
        "ld"
      ],
      [
        "Ġbe",
        "fore"
      ],
      [
        "Ġli",
        "fe"
      ],
      [
        "a",
        "ble"
      ],
      [
        "Ġme",
        "an"
      ],
      [
        "a",
        "ge"
      ],
      [
        "Ġg",
        "ra"
      ],
      [
        "Ġd",
        "es"
      ],
      [
        "Ġwor",
        "ld"
      ],
      [
        "Ġde",
        "ath"
      ],
      [
        "Ġm",
        "ine"
      ],
      [
        "ĠA",
        "nton"
      ],
      [
        "res",
        "s"
      ],
      [
        "Ġo",
        "wn"
      ],
      [
        "The",
        "n"
      ],
      [
        "if",
        "e"
      ],
      [
        "Ġw",
        "om"
      ],
      [
        "it",
        "e"
      ],
      [
        "v",
        "ing"
      ],
      [
        "Ġde",
        "ad"
      ],
      [
        "Ġ",
        "im"
      ],
      [
        "ou",
        "se"
      ],
      [
        "Ġl",
        "ady"
      ],
      [
        "Ġc",
        "ou"
      ],
      [
        "Ġk",
        "ill"
      ],
      [
        "Ġbet",
        "ter"
      ],
      [
        "i",
        "us"
      ],
      [
        "Ġa",
        "d"
      ],
      [
        "o",
        "se"
      ],
      [
        "S",
        "he"
      ],
      [
        "Whe",
        "n"
      ],
      [
        "Ġdo",
        "es"
      ],
      [
        "t",
        "y"
      ],
      [
        "Ġcom",
        "es"
      ],
      [
        "ou",
        "l"
      ],
      [
        "i",
        "a"
      ],
      [
        "m",
        "an"
      ],
      [
        "Ġt",
        "r"
      ],
      [
        "l",
        "and"
      ],
      [
        "Ġd",
        "u"
      ],
      [
        "Ġ",
        "N"
      ],
      [
        "Ġf",
        "e"
      ],
      [
        "Ġb",
        "ack"
      ],
      [
        "Ġn",
        "ame"
      ],
      [
        "Ġp",
        "art"
      ],
      [
        "o",
        "s"
      ],
      [
        "Ġf",
        "ind"
      ],
      [
        "Ġbl",
        "ood"
      ],
      [
        "Ġey",
        "es"
      ],
      [
        "m",
        "ent"
      ],
      [
        "row",
        "n"
      ],
      [
        "Ġhea",
        "ven"
      ],
      [
        "or",
        "row"
      ],
      [
        "Ġlea",
        "ve"
      ],
      [
        "Ġ",
        "J"
      ],
      [
        "as",
        "on"
      ],
      [
        "Ġsw",
        "eet"
      ],
      [
        "Ġke",
        "ep"
      ],
      [
        "Ġs",
        "le"
      ],
      [
        "Ġbr",
        "other"
      ],
      [
        "Ġgo",
        "ing"
      ],
      [
        "Ġha",
        "pp"
      ],
      [
        "Ġmad",
        "e"
      ],
      [
        "Ġd",
        "own"
      ],
      [
        "Ġp",
        "re"
      ],
      [
        "i",
        "gh"
      ],
      [
        "p",
        "er"
      ],
      [
        "Ġdaught",
        "er"
      ],
      [
        "w",
        "ard"
      ],
      [
        "Ġl",
        "ong"
      ],
      [
        "re",
        "n"
      ],
      [
        "b",
        "y"
      ],
      [
        "ve",
        "d"
      ],
      [
        "Ġd",
        "one"
      ],
      [
        "Ġe",
        "ver"
      ],
      [
        "Ġbe",
        "g"
      ],
      [
        "Ġ",
        "ro"
      ],
      [
        "Ġw",
        "on"
      ],
      [
        "l",
        "p"
      ],
      [
        "v",
        "il"
      ],
      [
        "Ġw",
        "it"
      ],
      [
        "Ġt",
        "alk"
      ],
      [
        "Ġon",
        "ly"
      ],
      [
        "ar",
        "k"
      ],
      [
        "Ġh",
        "ouse"
      ],
      [
        "Ġtw",
        "o"
      ],
      [
        "Ġs",
        "on"
      ],
      [
        "o",
        "st"
      ],
      [
        "Ġo",
        "ver"
      ],
      [
        "Ġw",
        "ife"
      ],
      [
        "Ġint",
        "o"
      ],
      [
        "Ġl",
        "it"
      ],
      [
        "c",
        "es"
      ],
      [
        "Ġno",
        "ble"
      ],
      [
        "b",
        "l"
      ],
      [
        "Ġs",
        "c"
      ],
      [
        "Ġp",
        "ut"
      ],
      [
        "all",
        "y"
      ],
      [
        "Ġpr",
        "ay"
      ],
      [
        "F",
        "or"
      ],
      [
        "is",
        "s"
      ],
      [
        "ll",
        "ow"
      ],
      [
        "e",
        "en"
      ],
      [
        "Ġm",
        "at"
      ],
      [
        "ri",
        "ed"
      ],
      [
        "ĠT",
        "h"
      ],
      [
        "f",
        "t"
      ],
      [
        "Ġmy",
        "self"
      ],
      [
        "B",
        "e"
      ],
      [
        "Ã",
        "¨"
      ],
      [
        "Ġst",
        "ay"
      ],
      [
        "Ġlit",
        "tle"
      ],
      [
        "b",
        "e"
      ],
      [
        "s",
        "w"
      ],
      [
        "Ġde",
        "ar"
      ],
      [
        "Ġsa",
        "id"
      ],
      [
        "Ã¨",
        "d"
      ],
      [
        "Ġyou",
        "ng"
      ],
      [
        "a",
        "ce"
      ],
      [
        "Ġw",
        "ar"
      ],
      [
        "The",
        "y"
      ],
      [
        "Ġk",
        "ind"
      ],
      [
        "Ġm",
        "aster"
      ],
      [
        "Ġh",
        "op"
      ],
      [
        "Ġcom",
        "p"
      ],
      [
        "Ġbec",
        "ause"
      ],
      [
        "Ġnot",
        "hing"
      ],
      [
        "Ġfriend",
        "s"
      ],
      [
        "Ġd",
        "ie"
      ],
      [
        "g",
        "er"
      ],
      [
        "n",
        "ot"
      ],
      [
        "Ġs",
        "l"
      ],
      [
        "ĠAnton",
        "y"
      ],
      [
        ".",
        "âĢĿ"
      ],
      [
        "o",
        "nd"
      ],
      [
        "Ġ",
        "ra"
      ],
      [
        "Ġp",
        "e"
      ],
      [
        "Ġm",
        "ight"
      ],
      [
        "Ġp",
        "er"
      ],
      [
        "Ġa",
        "pp"
      ],
      [
        "an",
        "ce"
      ],
      [
        "Ġhe",
        "ad"
      ],
      [
        "Ġre",
        "m"
      ],
      [
        "a",
        "p"
      ],
      [
        "ow",
        "er"
      ],
      [
        "Ġsle",
        "ep"
      ],
      [
        "b",
        "and"
      ],
      [
        "Ġsw",
        "ear"
      ],
      [
        "m",
[...]
